74
62
76
5F
6A
55
65
51
43
EE
DF
F4
E6
80
09
22
38
2D
09
F4
05
1E
17
1C
00
EE
00
80
C4
CE
CE
DB
C4
C4
CE
E6
DF
CE
DF
CE
53
3D
51
37
4C
3D
49
40
26
F8
DB
EC
EE
EC
30
1D
34
29
37
12
19
25
2C
25
08
0F
FA
C4
80
CE
DB
DB
EE
DB
E6
E3
DB
C4
CE
C4
5F
3B
34
FC
36
EE
44
2B
1F
EE
E6
DF
DB
E3
21
07
FD
08
1A
18
24
06
24
17
0E
08
E3
DB
DB
DB
CE
CE
E6
F8
E6
DB
EE
DB
C4
B3
32
30
53
2C
38
80
DF
C4
01
E6
C4
D5
F2
E9
EE
D5
E6
DF
0D
B3
D5
B3
DF
DB
0D
F4
DB
CE
CE
B3
EC
D5
C4
80
C4
B3
DB
B3
C4
80
25
F6
41
F9
1C
80
0A
B3
DB
80
B3
80
B3
D5
80
80
B3
80
80
80
80
80
F2
80
D5
CE
DB
B3
80
80
B3
D5
E3
D5
EC
C4
DB
D5
CE
80
B3
80
EE
80
C4
80
80
80
B3
80
B3
80
80
80
C4
DB
EC
80
C4
80
80
80
C4
80
B3
C4
80
CE
C4
80
B3
80
CE
C4
DB
C4
CE
B3
B3
80
80
80
80
80
80
80
80
80
80
80
DB
80
80
80
80
80
B3
80
80
80
80
80
80
80
80
80
80
80
B3
C4
80
80
CE
80
CE
80
CE
80
B3
80
80
80
80
80
80
80
80
80
80
80
B3
80
B3
80
80
80
80
80
80
80
80
80
80
80
80
80
80
80
80
80
80
80
B3
80
B3
80
B3
80
80
80
80
80
80
80
80
80
80
80
80
80
80
80
80
80
80
80
80
80
80
80
80
80
80
80
B3
80
80
80
80
B3
CE
80
80
B3
B3
80
80
80
CE
80
55
2B
41
35
45
3C
2D
03
2E
F4
09
E9
20
FF
80
80
80
80
FF
25
26
21
2B
24
3A
46
44
27
06
0A
20
06
08
E9
B3
80
E3
80
B3
80
65
57
66
5B
6E
58
65
53
6E
5F
6F
53
51
54
6A
5A
5D
52
62
5B
6C
5F
76
61
76
61
74
60
71
5A
6E
60
6B
55
5E
42
45
24
1D
00
64
3C
69
44
5C
5D
71
5C
6B
55
6B
53
68
5B
69
55
70
58
65
50
65
4F
60
50
62
50
69
53
62
51
67
47
64
4F
53
4E
5B
2F
32
0D
6C
51
5D
4E
62
4C
69
4C
62
28
4D
48
51
3E
5D
4D
60
50
62
3D
61
45
58
3D
47
38
62
44
61
48
59
33
51
3D
58
4B
56
38
30
0D
47
16
54
42
4C
F9
30
3D
4D
3E
5B
41
5F
4A
58
3B
4B
3A
53
37
57
37
4C
2B
4C
FD
38
3C
4F
39
47
36
52
21
4A
47
5B
2D
12
F9
3D
38
4D
29
49
2A
52
31
3B
3F
52
41
42
26
53
22
30
F8
2E
14
36
21
36
06
30
10
3C
25
3A
16
3A
0E
41
35
4B
FC
2A
10
10
CE
16
80
50
36
2B
CE
2A
80
F6
B3
1C
E3
44
2B
49
02
19
C4
2F
0E
2D
07
42
04
3E
25
47
07
2E
F6
2C
16
37
35
39
E3
1A
F6
FD
80
26
80
2E
F6
10
80
F6
E6
3C
F9
41
26
46
C4
23
F8
2A
E3
06
80
22
80
24
C4
2C
F4
FE
80
F8
C4
C4
80
E9
80
1F
DF
16
B3
DB
D5
80
80
03
80
E9
80
11
B3
2B
B3
F9
80
EC
80
11
D5
20
80
D5
80
80
B3
15
80
CE
80
80
80
80
80
80
80
DB
80
F0
80
CE
E6
FA
80
80
80
80
80
E9
80
80
80
80
80
80
80
80
80
F0
80
24
F9
10
80
80
80
80
80
B3
80
DF
80
CE
80
80
80
80
80
EE
80
0B
80
F0
B3
80
80
80
80
80
80
80
80
80
80
80
80
E6
80
80
80
80
80
80
80
80
80
80
80
80
80
80
80
80
80
80
80
80
80
EC
80
80
80
80
80
80
80
80
80
80
80
80
80
80
80
80
80
80
80
80
80
80
80
80
80
80
80
80
80
80
80
80
80
80
80
80
80
80
80
CE
80
B3
80
80
80
80
80
80
80
80
80
80
80
80
80
80
80
80
80
80
80
80
80
80
80
80
80
80
80
80
80
80
80
80
80
80
80
80
80
B3
80
80
80
80
80
80
80
80
80
80
80
80
80
80
80
80
80
80
80
80
80
80
80
80
80
80
80
80
80
80
80
80
80
80
80
80
80
80
80
80
80
80
80
80
80
FF
EE
05
80
28
80
80
80
80
80
80
80
80
80
80
80
80
80
80
80
80
80
04
80
3F
42
4B
80
46
3C
22
80
80
80
80
80
80
80
80
80
57
56
5F
4C
5B
3E
48
FA
CE
80
80
80
80
80
80
80
80
80
80
80
40
53
68
46
62
5A
6F
59
6D
50
47
80
80
80
80
80
EC
FA
1B
21
56
58
6C
4B
6C
4C
62
40
4B
3D
47
42
55
FF
B3
80
2E
3D
5C
45
64
5D
71
50
6C
5D
71
5B
6E
50
55
0F
DF
80
0C
CE
22
32
46
37
54
48
6C
51
6F
58
64
50
54
49
61
56
63
41
55
2B
60
4E
6B
5E
76
62
73
5C
76
5E
6F
5D
6F
56
63
34
20
F0
30
1F
51
4A
55
40
4E
40
62
46
6E
5C
60
49
64
48
5E
49
62
4C
55
43
65
53
65
53
70
59
62
55
69
4E
62
48
66
50
5F
17
13
F8
34
39
67
5B
5F
41
4A
08
4D
31
60
4C
64
57
69
51
5E
3E
5E
4E
51
48
63
52
65
4E
6C
41
52
46
64
3F
4F
3A
50
3B
57
30
32
39
5D
43
56
50
67
38
4D
1F
51
39
3E
29
60
55
5B
47
65
4C
59
4E
5F
4C
60
4F
67
51
67
30
46
39
58
42
54
0B
55
43
68
25
26
43
5A
36
51
3E
5A
34
4E
C4
36
F8
44
28
37
08
4D
34
42
1F
37
0D
3C
1A
45
2A
3F
E3
39
80
FD
80
03
80
E3
C4
34
D5
3F
38
56
4B
5F
4B
55
3F
52
0A
32
80
1F
B3
00
B3
E9
80
0C
B3
33
FD
3A
F2
2C
00
30
04
35
2F
1C
80
80
80
DB
80
FD
80
31
3D
64
5A
75
58
6B
5E
70
40
60
53
80
80
07
80
B3
80
E9
80
E9
80
10
DB
41
F8
30
14
0E
B3
39
EE
D5
80
80
80
80
80
80
80
18
0C
4A
4C
69
4C
63
50
6C
4F
67
55
80
80
80
80
80
80
80
80
80
80
80
80
2A
80
F8
80
CE
80
80
80
80
80
80
80
80
80
C4
80
80
05
49
35
5D
46
65
49
5E
39
56
42
EE
80
80
80
80
80
80
80
80
80
CE
80
24
80
80
80
80
80
EC
80
80
80
80
80
80
80
80
80
80
80
17
25
4B
36
61
46
53
34
55
41
07
80
80
80
80
80
80
80
80
80
D5
80
17
80
D5
80
DF
80
80
80
80
80
80
80
80
80
80
80
80
80
E6
DB
41
21
4C
25
49
32
4D
2F
F4
80
80
80
80
80
80
80
80
80
F9
F2
FC
80
F2
80
12
C4
80
80
80
80
80
80
80
80
80
80
80
80
E6
C4
47
2A
44
35
51
31
49
24
80
80
80
80
80
80
80
80
80
80
80
80
EE
80
80
80
80
80
80
80
80
80
80
80
80
80
80
80
80
80
0F
E6
2C
EE
3B
27
39
14
3E
1A
80
80
80
80
80
80
80
80
80
80
80
80
80
80
80
80
80
80
80
80
80
80
80
80
80
80
80
80
80
80
80
80
31
80
1E
08
45
1B
3E
26
80
80
80
80
80
80
80
80
80
80
80
80
80
80
80
80
80
80
80
80
80
80
80
80
80
80
80
80
80
80
D5
80
1C
DB
30
F6
30
0B
4A
25
80
80
80
80
80
80
80
80
80
80
80
80
80
80
80
80
80
80
80
80
80
80
80
80
80
80
80
80
80
80
80
80
B3
80
0B
80
F9
C4
B3
FC
80
80
80
80
80
80
80
80
80
80
80
80
80
80
80
80
80
80
80
80
80
80
80
80
80
80
80
80
80
80
80
80
80
80
F8
80
CE
80
80
80
80
80
80
80
80
80
80
80
80
80
80
80
80
80
80
80
80
80
80
80
80
80
80
80
80
80
80
80
80
80
80
80
80
80
80
80
80
80
80
80
80
80
80
80
80
80
80
80
80
80
80
80
80
80
80
80
80
80
80
80
80
80
80
80
80
80
80
80
80
80
80
80
80
80
80
80
80
80
80
80
80
80
80
80
80
80
80
80
80
80
80
80
80
80
80
80
80
80
80
80
80
80
80
80
80
80
80
80
80
80
80
80
80
80
80
80
80
80
80
80
80
80
80
80
80
80
80
80
80
80
80
80
80
80
80
80
80
80
80
80
80
80
80
80
80
80
80
80
80
80
80
80
80
80
80
80
80
80
80
80
80
80
80
80
80
80
80
80
80
80
80
80
80
80
80
80
80
80
80
80
80
80
80
80
80
80
80
80
80
80
80
80
80
80
80
80
80
80
80
80
80
80
80
80
80
80
80
80
80
80
80
80
80
80
80
80
80
80
80
80
80
80
80
80
80
80
80
80
80
80
80
80
80
80
80
80
80
80
80
80
80
80
80
80
80
80
80
80
80
80
80
80
80
80
80
80
80
80
80
80
80
80
80
80
80
80
80
80
80
80
80
80
80
80
80
80
80
80
80
80
