0A
0A
0A
42
25
0A
0A
12
0A
4D
0D
10
0A
0A
0A
2A
46
1C
30
45
18
0D
0A
3F
0A
26
4D
1B
58
0A
0A
5C
39
44
0A
2C
0A
0A
0A
66
11
2B
0A
48
0A
78
15
0A
0A
20
0A
4E
0A
11
24
0A
19
0A
42
0A
20
46
0A
0A
7C
2D
0A
0A
0A
0A
30
5A
1C
1B
17
0A
3F
1E
0A
0A
0A
51
35
0B
0A
57
0A
33
0A
0A
0A
0A
0A
0A
0F
0A
0A
29
18
0A
0F
0A
3A
4F
23
0A
68
0A
0A
52
1E
27
27
4F
16
0C
0A
0A
33
4A
0A
22
0A
0A
0F
1A
0A
0A
5D
34
0A
0A
0E
3A
20
26
43
0A
0A
0A
0A
14
16
0A
7D
26
0A
61
0A
2C
32
7F
0A
0A
28
48
2F
15
0A
0D
12
0A
0A
1D
1A
0A
0A
2D
17
0A
0A
2F
19
0A
0A
0A
49
6E
0A
0A
0B
7C
0A
2A
63
45
42
0A
21
0F
13
3A
7F
47
0A
2F
11
0A
33
18
0A
0A
43
0A
34
0A
0B
0A
52
45
29
0A
0A
0A
0A
63
34
0A
62
0A
1F
0A
33
0A
22
0A
32
0A
0A
3A
42
79
19
25
0A
13
43
3A
0D
77
0A
32
0A
0A
0A
7F
0A
22
5C
0A
0A
19
22
0D
0A
0A
0A
0A
7B
34
0A
0A
0B
0A
0A
0A
7F
0A
0A
73
23
2F
0A
0A
0A
0A
0A
0A
38
7F
0A
2A
0A
0A
0A
5C
0A
0A
0A
66
0A
0A
14
48
0A
0A
0A
49
0A
0A
0A
31
2B
29
7F
0A
3C
0A
0A
0A
22
0A
55
0A
2C
0A
5D
28
34
0A
44
5F
7D
20
0A
0A
0A
60
2D
0A
57
0D
48
7F
1B
0A
0A
74
0A
0B
0A
29
19
0A
5C
3E
3F
13
0A
5A
41
0A
71
28
74
21
36
3E
39
7C
76
0A
0A
0A
21
22
0A
2E
0A
7F
0A
2C
0A
60
11
7F
0A
0A
26
0A
33
0A
0D
76
7F
0A
11
0A
0A
0A
18
0A
5C
6A
0A
0A
74
0A
27
7F
0A
12
7F
12
0A
0A
0A
22
20
2F
0A
5D
0A
5E
0A
0B
3F
0A
0A
22
4E
32
14
6B
27
0A
24
0A
47
0A
0A
0A
0A
0A
1E
0A
0A
38
0A
22
0A
51
0A
5E
46
0A
13
32
0A
7F
24
0A
0D
0A
38
23
0A
0B
33
3A
37
5D
16
0A
21
55
15
0A
0A
7F
1D
32
1A
0A
0A
0D
0A
1F
0A
6F
0A
0A
0A
0A
0A
0C
1B
0A
23
0A
0A
1B
0A
1B
1C
0A
0A
7F
0A
0A
45
0A
0A
3E
0A
7F
0A
0A
22
3A
0A
51
29
4B
22
0A
0A
22
0A
7F
2F
4B
0A
0A
0A
0A
39
0A
0A
0A
19
15
0A
7F
0A
0A
7F
0A
0A
0A
47
0A
0A
0A
71
76
2F
0A
4C
76
0A
0A
12
53
2A
0C
0A
0A
0A
5E
48
0A
4E
60
20
0A
27
0F
7F
7F
0A
0A
28
0A
1D
7F
59
0D
7F
0A
7E
0A
0A
0A
0A
4A
46
0A
2C
0A
0A
7F
7F
0A
7F
0A
0A
7F
0A
0A
0A
0A
0A
24
46
50
28
0A
0A
0A
0A
0A
22
0C
0F
0A
0A
0A
0A
0A
0A
0A
0A
66
0A
0A
0A
0A
0A
43
0A
7F
0A
0A
0A
22
45
0A
0A
0A
1A
0A
1F
0A
2D
0A
0A
0A
7F
15
2A
0A
0A
65
0A
0A
41
0A
0A
55
38
0A
26
1C
0A
0A
0A
0A
6C
1B
3A
4C
0A
5B
41
0A
0A
0C
18
78
7A
24
0A
58
22
0A
0C
1C
5C
14
1D
0A
0A
0A
42
0B
42
0A
6A
0A
0E
35
35
55
16
7F
18
18
33
27
0A
76
14
7F
0A
40
64
0A
0A
31
7F
0A
0A
0A
0A
0A
3A
0A
4C
0A
6D
0A
19
59
45
0A
0A
0A
0A
0A
10
0A
2B
5D
31
0A
0A
4B
0A
0A
0A
0F
39
10
1B
0A
46
6E
23
0A
20
0A
2E
0A
11
0A
0A
4A
49
0A
0A
0A
30
0A
0A
25
2D
0A
61
0A
0F
0A
16
0D
45
26
48
0A
12
1B
10
48
20
2C
0A
18
40
2F
28
0A
6F
0A
0A
57
38
0A
35
5B
0A
7F
2D
0A
0A
0C
25
0A
0A
7E
0A
0A
0A
47
0A
0B
0A
0A
0A
0A
0A
0A
1C
0A
0C
53
3F
7F
1C
0A
0A
0A
0A
57
70
0A
0A
0A
0A
0A
0A
0A
0A
0A
0A
0A
0A
28
7F
0A
0A
18
0A
0A
0A
1C
46
7A
0B
0A
70
16
1A
5D
0A
0C
0A
0A
0F
7F
0A
2C
0A
7F
0A
0A
0A
0A
0A
0A
26
0A
0A
0A
0A
5B
0A
22
0A
0A
0A
0A
1B
18
43
0A
0A
0A
0A
0A
0A
0A
4C
0A
7F
0A
50
0A
6D
0A
3B
32
1D
46
0A
44
1D
55
14
0D
1E
4E
2C
7F
0D
2F
1A
75
1C
4D
0A
5B
31
56
0A
0A
51
0A
18
0A
0A
0A
0C
0A
0A
0A
0A
0A
44
7F
25
65
3A
0A
0A
12
0A
0A
17
17
5E
0A
37
0A
1B
0A
0A
24
7D
5B
4E
65
0A
1C
0A
0A
34
0A
5F
18
49
7F
0A
0A
2D
7F
0A
0A
0A
0A
0A
7F
51
0A
0A
25
0E
0A
0A
7F
3B
0A
0A
4E
45
0A
0A
0A
46
1D
29
0A
47
33
0A
0A
0E
0A
0A
0A
0A
0A
39
0A
1E
0A
0A
0A
39
2F
3C
58
70
1D
0A
4B
45
0A
12
0A
7F
7F
2F
0A
7F
13
0A
0A
7F
37
25
1B
0A
0A
0A
35
0A
0A
30
7F
20
7F
0A
0A
0A
69
0A
0A
0A
0A
48
5B
0A
0A
1A
0A
25
28
0A
12
7F
3B
0A
0A
0A
4B
2A
67
7F
0A
0A
18
0A
0A
7F
0A
0A
0A
20
0A
37
21
33
0C
7F
21
2B
0A
0A
0A
0A
0A
7F
32
37
0A
22
0A
0A
0A
30
66
0A
0A
0A
0A
71
3A
0A
0A
12
13
0A
7F
71
0A
0A
46
0A
3A
0A
0A
36
17
6D
7F
0A
27
15
0A
40
40
0A
0A
7B
0A
4F
0A
33
0A
62
0A
54
0A
0A
39
0A
0A
0A
0A
0A
28
0A
0A
0A
46
0A
0A
0E
32
15
7F
0A
0A
2D
17
7F
0A
29
3F
35
0A
5B
0A
32
3C
0A
7F
2D
0F
0A
17
0A
0A
0A
1F
61
7F
0A
0A
0A
0A
0A
79
0A
0A
34
0A
0A
0A
5F
0D
0C
12
0A
0A
0A
0A
0A
0A
0A
0A
1B
0A
0A
38
23
0A
0A
0A
0E
76
36
0A
0A
49
48
0A
58
34
2F
0A
0A
64
0A
69
7F
0A
4A
0A
0A
0A
10
0A
0A
16
26
0A
0A
7F
3F
3B
0A
7F
2A
0F
1C
0A
17
0A
0A
7F
0A
0A
0A
13
0A
19
14
7F
47
0A
1A
35
0A
0C
0A
70
2F
0A
0A
0A
19
0A
20
22
0A
0A
0C
71
0A
64
1C
1B
0A
0A
0A
0A
0A
7F
47
36
0A
0A
0A
0A
15
2E
51
0A
0A
0A
0A
7F
0A
0A
51
0A
0A
0A
3F
0A
0A
10
0A
0D
0A
0A
16
0A
0A
26
0A
68
0A
0A
0A
0A
0A
3B
0A
40
0A
0A
0A
0A
61
2E
0A
28
73
0A
25
0A
3D
0A
0A
47
39
64
0A
51
0A
5F
0A
0A
2F
6C
0A
7F
2F
0A
0A
0A
0A
0A
1E
7F
3A
6D
3B
0A
60
0A
1F
7E
1F
7F
0A
28
0A
0A
0A
0A
0A
2C
3E
19
0A
0A
0A
7F
35
0A
67
0A
15
0A
0A
0A
3D
0A
10
0A
0A
0E
0A
0A
12
4D
0A
0A
45
0A
3D
12
0A
0A
0D
0A
0A
0A
0A
4E
0A
7F
0A
0A
0A
44
0A
0A
0A
2C
2C
1D
0A
0A
27
0A
12
72
0A
0A
0A
0A
0A
0A
2E
74
7F
0A
7F
5D
20
0A
0A
0A
6D
72
51
0A
0D
0A
25
25
66
5E
1E
66
2B
0A
0A
5D
0A
0A
0A
2A
5E
5E
0A
0A
15
47
0A
0A
7F
41
0A
0A
55
23
0A
0A
0A
0A
0A
0A
7F
0A
21
0A
20
0A
0A
7F
0A
0A
0A
0A
0A
0A
0A
3F
50
0A
11
0A
0A
0A
0A
1D
0A
0A
4C
0A
62
0A
0A
49
23
19
5D
0A
0A
0A
4F
0A
0A
0A
0A
0A
0A
43
10
7F
29
75
0A
38
28
0A
0A
0A
70
7F
4B
0A
0A
0B
14
0A
37
5F
0A
0A
0A
0A
35
3F
2A
0A
0A
0A
4B
7F
11
0A
0A
54
0A
0A
0A
0A
0F
7F
52
2F
0A
15
5B
28
0A
0A
0A
75
7F
0A
52
0E
0E
74
0A
0A
73
0A
1D
0A
0A
0A
7F
7F
0A
0A
0A
1C
12
7F
10
0A
0A
3B
24
0A
16
7F
6B
7F
0A
14
0A
0A
0A
7F
7E
2D
29
45
63
7F
27
1D
0A
1C
3E
0A
3E
7F
3E
0A
72
0A
1B
30
1B
48
26
1B
2D
60
43
19
25
0A
0A
3D
7F
0A
7F
49
34
7F
35
0A
4E
0A
0A
0A
0A
0A
3E
0A
34
0A
0A
54
2F
38
0A
7F
0A
0A
0A
0A
0A
0A
37
17
0A
0A
76
4A
0A
0A
0A
18
0A
30
32
0A
1C
0A
5E
6E
0A
0A
0A
28
0A
0A
17
7F
0F
37
4B
57
1A
0A
0A
0A
65
7F
39
0A
53
0A
27
64
7E
0A
12
0A
0A
20
0C
0A
0A
35
0A
7F
5D
7F
17
7F
0A
0A
0A
20
1A
0A
0A
63
54
0A
0A
0C
0A
0A
0A
0A
46
7F
2F
0A
0A
0A
0A
7F
3E
0A
53
10
44
0A
0A
0A
5C
36
0A
0A
0A
0A
1A
0A
6F
0A
0A
0A
42
0A
3B
0A
12
0A
0A
6A
0A
1F
22
1E
0A
19
0A
0A
18
62
3B
12
0A
27
0A
0A
0A
7F
0A
46
78
0A
65
18
0A
14
0F
63
64
56
13
0A
0A
21
22
0A
0A
46
0A
34
0A
27
0A
0A
27
0A
50
0A
0D
13
0F
0A
16
74
0A
0A
10
44
0A
79
7F
0A
0A
14
34
0A
15
0A
0A
54
2B
0A
30
0A
0E
0A
16
0A
0A
0A
0A
7F
0A
15
0C
50
0A
0A
0A
0A
1A
0A
0A
23
0A
0A
0A
4F
0A
0A
7F
0A
0A
0A
0A
0A
0A
7F
15
0A
4B
0A
2C
71
18
0A
3A
0F
52
5A
0A
4C
0A
0A
7F
45
1B
0A
1D
0A
0C
0A
0C
0A
0A
3B
0F
7F
0A
0A
0E
0A
29
0A
0A
7F
0A
0A
0A
13
0A
0A
0D
0A
17
0A
0A
7F
29
0A
0A
0A
0A
0A
59
1B
5E
0A
38
0A
2C
0A
0A
0A
0A
0A
68
4E
43
50
7F
0A
19
0A
0A
0A
4A
0A
65
20
0A
0A
0A
5A
17
72
41
14
5C
1F
55
0A
2A
0A
62
0A
17
0A
0A
7F
0A
34
30
0A
0C
0A
0A
31
12
0A
3A
2D
0A
5F
1B
16
29
0D
0A
0A
34
0A
0B
0A
0A
0A
37
4A
4D
0A
2D
0A
25
7F
0A
2E
27
0B
0A
0A
1B
78
6A
0A
53
0A
2F
1F
0A
0A
19
7F
0A
57
0A
7E
31
0A
7A
0A
41
5C
1C
7F
0A
0A
46
29
0A
7F
0A
42
0A
7F
0A
0A
0A
0A
0A
0A
0A
0A
0A
0A
34
0A
0A
10
0A
6A
7F
7F
18
3A
0A
44
0A
3F
7F
4C
0A
0A
67
27
0A
0A
63
7F
0A
5F
76
0A
0A
5D
0A
56
0A
0A
0A
4F
0A
5C
0A
0A
2D
47
0A
1E
0A
0A
0A
14
0A
0A
1C
0A
29
0A
44
0A
1B
0A
0A
0A
0A
7F
0A
0A
2A
0A
20
28
16
19
0A
63
0A
0A
0A
0A
10
30
68
0A
1D
0A
19
78
0A
0A
53
69
0A
21
1B
4D
0A
67
20
0A
0A
0A
0A
40
24
0A
7F
18
21
38
27
7F
0A
56
0A
0A
0A
7F
0A
0A
13
4E
0A
0D
0A
0A
0A
41
4F
1D
0A
0A
0A
0A
0A
0A
1A
6D
23
0A
1E
0A
0E
0A
0A
44
43
0A
7F
0A
0A
7F
0A
0A
33
0A
0A
0A
20
2B
0A
7F
48
0D
0A
5A
47
0A
16
0A
62
64
44
0F
33
7F
20
72
0A
7F
0A
1E
2C
3D
28
27
0A
0A
0A
0A
0A
0A
57
0A
0A
0A
0A
0A
3D
19
0A
0A
7F
0A
0A
0A
1B
0A
22
62
45
0A
26
0A
2F
0A
0A
1A
2B
18
65
0A
40
44
1A
69
7F
3C
0A
0A
13
0A
2D
5E
4F
0A
22
32
44
0A
1B
33
0A
0A
5B
0A
5D
49
0A
0A
0A
69
0A
0A
0A
0A
36
58
21
0A
0A
21
4E
0A
11
0A
0A
7F
0A
0A
0A
0A
0A
20
45
0A
28
0A
0A
7F
0A
0A
65
51
0A
0A
47
0A
1F
0A
64
4F
0A
28
0A
0A
36
0A
0A
31
0A
0A
1B
0A
0A
5A
7F
45
47
0A
27
0A
0A
5D
51
70
0A
0A
19
7F
0A
0A
76
0A
0A
0A
1A
0A
30
0A
0A
0A
0A
0A
0B
0A
11
28
0A
76
0A
0A
0A
0A
0A
63
7E
7F
4E
0A
0A
0A
0A
0A
7F
73
0A
0A
0A
3B
0C
1F
24
62
56
0A
0A
36
37
0A
57
0A
0A
22
18
0F
27
41
0A
0A
0A
19
16
0A
3C
3B
0A
5A
7F
0A
15
0A
14
0A
23
29
0A
0A
0A
0A
34
7F
64
0A
0A
28
0A
5E
1A
6D
13
33
0A
22
4A
67
0A
0B
7F
4E
13
3F
62
24
0A
0A
0A
0A
0A
0A
0A
12
53
0A
0A
0A
26
0A
2F
7F
12
2F
29
7F
0A
0A
0A
25
1B
6D
0A
0A
57
0A
0A
62
0A
0A
3A
0A
0A
0A
2E
0A
12
0A
7F
0A
0A
0A
3C
30
24
0A
7F
0A
0A
47
2A
0A
0A
71
4A
7D
0A
7F
0E
0A
0E
0A
35
0A
15
0A
52
62
0A
0A
31
0A
4C
0A
34
7F
0A
72
7F
55
28
0A
0A
0A
3B
0A
0A
7F
0A
5B
22
0A
15
5F
20
7F
0A
0A
0A
39
0D
42
0A
7F
0A
0A
25
0A
0A
0A
54
5C
67
0A
5B
0A
0A
43
51
0A
1A
0A
0A
0A
1B
7F
42
0A
0A
0A
0A
0A
21
0A
7F
66
0A
0A
36
0A
57
3E
75
0A
1B
0A
0A
14
1E
0A
30
0A
0A
18
23
47
35
7F
0A
0A
15
0A
51
0A
0A
0A
0A
0A
53
0A
21
0A
0A
0A
0A
3C
0A
0A
0A
0A
0A
7F
32
0A
0A
0A
0A
47
23
0C
0A
0A
0A
0A
0A
7F
12
0A
0A
0B
13
0A
0A
0A
0A
4A
29
0A
19
0A
0A
1D
0E
6C
5C
0A
15
0A
0A
0A
0A
0A
32
15
22
34
3E
1F
0A
23
0A
7F
3C
0A
12
33
2F
0A
28
0A
11
0A
0A
75
40
53
0A
0A
0A
0A
4A
0A
0A
0A
0F
0A
28
0A
0A
0A
36
50
3F
0A
10
56
35
19
0A
7A
0A
0A
0A
2F
18
52
0A
0A
0A
0A
0A
13
0A
25
0A
0A
70
0A
0B
17
0A
30
17
4C
0A
7F
44
0A
0F
0A
18
20
0A
6A
0A
0A
0A
4E
27
7F
28
0A
44
0A
0A
52
33
0A
0A
0A
0A
0A
1C
65
0A
0A
0A
0A
0A
0A
0A
0A
1D
4E
0A
0A
0A
0A
0A
0A
1E
69
0A
0A
29
0A
5F
6D
41
41
0A
0A
0A
0A
39
0A
0A
0A
6F
0A
0A
0A
13
7F
0A
0A
23
57
25
44
27
0A
21
5A
25
62
37
2A
2A
0A
35
0A
0A
0A
34
0A
0A
58
0A
0A
0A
3D
0A
3E
1D
0A
0A
72
1D
72
2D
0A
0A
0A
0A
1B
0A
42
14
0A
0A
0A
35
0A
0A
0A
0A
0A
13
7F
0A
0A
0A
1C
17
29
0A
0A
37
76
48
0A
53
0A
26
0A
3B
18
2A
34
2C
0A
0A
3E
17
33
0A
7F
0A
0A
37
42
0A
5A
0A
41
0A
0A
0A
0A
11
50
19
0A
0A
0A
27
56
0A
0A
16
0A
29
0A
10
0B
3A
0A
0A
7F
44
0A
0A
0A
0A
42
44
7F
50
0A
0A
0A
0A
0A
17
31
0A
0A
57
58
1B
7B
0D
0A
0A
0A
0E
0A
0A
1E
0A
0A
0A
0A
0A
0A
0A
0A
0A
65
0A
0A
4E
69
0A
7F
2F
0A
0F
0A
0A
0A
0A
7F
0A
0A
25
12
0A
53
0A
0A
0A
0A
0A
0A
27
0A
12
0A
0A
3B
0A
0A
16
0A
10
0A
2C
35
0A
0A
7E
46
0A
6B
0A
0A
58
3A
0F
0A
0A
0A
45
78
12
0A
0A
28
0A
0A
7F
2B
0A
0A
19
7F
0A
19
54
7F
0A
2A
0A
0A
36
0A
4C
7F
29
0A
0A
0A
16
61
7F
6A
32
0A
39
0A
11
7F
0F
0A
28
0A
0A
56
0A
0A
34
61
0A
37
0A
0A
16
3A
0A
12
0A
12
1E
0A
21
4B
52
0A
0B
13
0A
0A
0A
0A
75
0A
0A
35
0A
0A
68
7F
0A
0A
0C
30
1A
0A
0A
60
0A
0A
0A
0A
0A
0A
0A
2F
4E
2A
12
0B
5C
0A
0A
0A
43
4B
7F
0A
61
0E
0A
61
14
0C
0A
38
0A
56
0C
0D
7F
0A
0A
0A
0A
31
26
0A
7F
51
65
0A
5B
0A
5A
0A
3F
7F
32
10
0A
1E
16
0A
23
0A
3C
0A
30
30
1F
7F
0A
0A
0C
7F
18
15
0A
7D
2C
0A
0E
39
0A
0A
2B
7F
0A
0A
4D
0A
2B
7F
0A
0A
3E
21
0A
43
0A
0A
0A
7F
65
7F
0A
0A
27
0A
0A
0A
7F
55
0A
0A
29
0A
0B
7F
7F
0A
0A
7F
0A
0A
31
0A
1F
0C
27
0A
33
7F
0A
27
7F
0A
0A
43
13
0A
0A
51
0A
33
0A
0A
0A
36
3E
0A
0A
0A
1F
15
0A
0A
15
20
0A
0A
34
0A
0A
5A
0A
40
5B
0A
52
4A
0A
5F
0A
0A
0A
13
0A
0A
31
3C
40
0A
0A
0A
0A
0A
0A
0A
2C
3F
0B
0A
0A
1B
0A
7F
0A
5D
0A
3A
3A
0A
0A
7F
0A
0A
0A
0A
0A
41
0A
35
0A
0A
0A
0A
0A
60
0A
0A
0D
34
4A
0A
43
0A
27
0A
19
60
0A
0A
18
0A
0A
7F
0C
0A
0D
0A
0A
0A
0A
3E
0A
1D
0A
0A
0B
0A
37
3F
0A
49
52
12
0A
0A
0A
0A
0A
48
0E
7F
0A
0A
2C
0A
3B
43
0A
11
0A
0A
0A
0A
21
0A
39
61
56
0A
28
0A
1D
10
7F
46
50
0A
0A
0A
37
0A
3F
3A
0C
0A
3E
58
45
0A
45
0A
0A
2C
29
0A
0A
55
2D
57
0A
54
2E
66
0A
7F
0A
0A
15
0A
3C
39
0A
0A
0A
7F
0A
10
0A
16
0A
14
7F
0A
0A
0A
0D
0A
2C
20
0A
0A
4B
0A
0A
41
12
16
2F
0A
7F
0A
0A
0A
0A
14
0A
0A
0A
0A
2C
0B
27
7F
48
0A
0A
0A
0A
0A
0A
0A
0A
58
0A
20
3C
0A
12
39
0A
1C
55
0A
1E
45
0E
0A
7B
0A
7F
0A
0A
0A
4B
0A
72
7F
17
0A
44
0A
2A
0E
10
0A
27
0A
61
0A
0A
0A
4A
15
0C
27
0A
0A
0A
0A
0A
2E
0A
0A
25
38
15
0A
0A
7F
34
20
46
6D
0A
15
10
7F
0A
0A
0A
0A
1C
4F
7F
74
14
21
45
45
0A
0A
0A
7F
43
0A
0E
0A
0B
48
11
0A
0F
0A
10
44
1E
35
0A
0A
0A
0A
0A
62
24
55
42
0A
50
0A
50
0A
21
0A
0A
7F
36
0A
21
25
0A
5D
7F
0A
0A
7F
18
27
0E
45
12
0A
38
20
1D
0A
1D
43
0E
0A
58
0A
24
72
18
2F
58
0E
0A
2F
10
0A
0A
1D
0A
7F
36
0A
2A
4C
1A
0A
0A
13
0A
65
0A
5F
0A
0A
0A
0C
0A
0A
34
0A
0A
3A
1E
0A
30
0C
28
0A
0E
0A
3C
1E
28
0A
0A
0A
0A
7F
0A
0A
0A
2F
0D
0D
0A
75
10
0A
26
0A
0A
7F
0A
2E
0A
0A
0A
0A
52
0A
0A
32
0A
5C
46
0A
47
15
0D
0A
24
0A
0A
0A
10
0A
1D
0E
36
0A
0A
0A
52
46
0A
1D
23
0A
0A
0A
0D
0A
23
2A
0A
4B
0A
0A
0A
0A
0C
0C
29
0A
5F
14
2D
7F
10
0A
6F
52
22
4D
1F
0A
20
0A
12
0D
0A
0B
0A
15
43
53
0A
35
0A
0A
0A
0A
0A
4B
32
0A
1F
0A
0A
0A
0A
0A
7F
0A
4E
0A
21
0A
27
0A
30
0C
0A
0E
0A
0A
15
58
13
0A
0A
0A
35
0A
0A
38
0A
0A
0A
35
10
23
0A
34
1E
0A
0A
0A
64
19
0A
13
0A
0A
1A
0A
26
0A
0A
0A
0C
0A
0A
0A
0A
0A
0A
7F
79
0A
0A
0A
3A
0A
1D
0A
7F
0A
0A
0A
0A
0A
34
1E
0D
74
16
6F
67
63
0A
0D
0A
2D
0A
13
0E
22
13
0E
47
0A
12
64
0A
66
0A
0A
2A
7A
2F
0A
21
0A
2A
4F
25
16
20
14
0A
42
0C
0A
