EF
0A
0A
7F
B7
A6
9C
70
15
8A
7F
43
85
E5
EF
5E
FE
24
B6
6D
E0
A0
BF
75
8B
97
BF
7C
A2
A4
75
5C
1E
0E
D6
76
F9
FF
FF
FF
FA
FF
FF
FF
F9
FF
FF
FF
F9
FF
FF
FF
F8
FF
FF
FF
F9
FF
FF
FF
F8
FF
FF
FF
F9
FF
FF
FF
88
05
00
00
B3
FF
FF
FF
39
04
00
00
51
FD
FF
FF
61
FF
FF
FF
8D
00
00
00
31
07
00
00
72
05
00
00
0D
FB
FB
1D
DE
10
E8
DF
02
27
13
15
12
17
01
E2
1C
FC
00
F6
E6
23
17
0C
F8
1A
04
FB
FC
EA
DF
04
1F
DD
1D
1B
EE
0B
E5
15
10
F4
DD
26
FC
20
0E
17
15
E7
F5
FD
00
DB
04
E4
14
0F
22
14
F5
26
F9
F2
21
F6
DE
FE
18
E7
FD
E2
0F
FE
F2
EA
05
0E
24
FB
E5
1B
0B
10
DF
F1
16
1B
FB
19
1C
F7
20
EF
EB
0F
0B
E3
1B
E8
19
D8
18
17
17
0D
FE
11
EE
17
05
FD
00
06
DB
E3
EB
E1
FB
0E
0D
FE
1D
05
DE
15
06
0B
05
04
DF
05
18
F0
08
DA
F4
FB
27
E9
EE
F9
28
1D
DA
EA
1A
DC
1D
EE
22
EF
FB
0D
E2
05
00
17
28
0D
F9
F8
F9
19
F2
E5
F3
D9
E0
DF
16
12
10
FD
12
E5
20
00
23
E4
00
10
00
FC
E5
F6
EB
F0
0F
0B
09
F5
25
DF
F3
E1
F3
25
F5
21
00
10
FD
ED
15
26
ED
17
ED
12
17
FC
13
EE
DE
DF
FC
21
E2
FC
11
E8
12
F0
19
06
04
E6
FD
1D
D9
15
FF
12
0D
FA
F1
0A
E3
07
DF
0C
0A
DE
15
F9
17
DB
E6
00
E7
F2
0D
E3
0E
E0
E6
07
18
E5
F0
22
28
07
FC
F4
09
07
EF
D9
E4
25
F9
FF
FD
17
DD
DE
EE
FF
0E
FF
FB
23
E5
06
03
FE
19
ED
25
F2
04
02
1C
FB
EF
D9
F5
1A
D8
20
03
E3
F0
04
F1
E0
0D
0E
E1
EE
EB
0D
13
12
24
16
F1
E0
09
22
26
EA
EB
DB
E3
04
04
F6
F1
1B
FD
19
26
F1
E8
25
0B
EF
0A
01
21
EC
28
23
E6
E5
03
DB
F0
FB
26
28
E4
20
DF
14
1C
20
EA
20
E1
02
FE
F1
D9
16
F3
0D
F9
F6
1F
DF
13
14
F6
ED
D8
23
24
EB
DA
E1
DD
1B
20
E4
14
E6
F5
08
12
1E
DB
E7
EE
F1
28
16
F1
26
00
00
FB
E3
23
D9
E6
EA
EE
E2
D9
0E
26
E1
F0
01
23
10
16
07
F9
E8
1E
19
DA
11
DE
13
1A
E2
FB
E2
05
23
DE
F8
26
F0
E2
FF
01
0D
F1
25
02
EF
25
22
00
DA
08
04
E4
0B
1C
E0
12
E3
14
F9
D8
26
E5
08
E6
23
13
19
FA
FD
0B
17
1C
D9
0D
E0
EF
1B
EC
18
FD
EA
F3
02
15
09
23
1E
15
08
EF
F9
E1
F6
23
FA
E1
0C
25
1E
EE
FC
03
EC
ED
EB
28
14
1C
1A
25
E0
1F
DD
FE
08
F4
E3
E7
1A
F1
F1
22
E3
22
22
08
E5
E4
EF
06
E4
FC
E1
03
D9
11
DC
E7
E6
1B
DC
FA
07
01
0F
19
F7
1B
F1
27
00
13
1E
18
1C
03
DB
FF
E6
20
EB
EA
EC
0C
06
24
F9
EE
DB
D8
F6
22
02
20
E0
DF
1B
E0
DC
F8
22
0F
E0
1B
1C
18
21
EB
27
F1
18
06
17
0A
0C
09
17
13
E2
1A
03
F2
01
26
1D
1B
FD
17
F7
0F
0B
EC
ED
DC
E3
FB
FE
E5
F9
08
EA
F3
F5
00
F5
13
F2
FB
F6
E6
0F
EB
F0
18
24
0E
22
47
31
41
4E
55
97
52
5C
50
EE
C1
56
CA
94
8A
64
FA
FF
FF
FF
FA
FF
FF
FF
F8
FF
FF
FF
F9
FF
FF
FF
EB
07
00
00
4D
03
00
00
2E
F3
FF
FF
C7
F4
FF
FF
FC
FF
FF
FF
00
16
1A
EA
1C
07
08
E7
07
0E
05
E7
01
1B
0E
EA
1C
1C
EC
12
FA
06
FD
11
1E
12
1A
1B
E7
F1
0E
05
E5
E7
01
07
EC
EC
E9
04
E2
04
FF
FE
0B
01
0E
10
1A
12
01
00
F0
06
EA
1A
15
E9
11
E9
0D
E7
FF
0A
0E
FB
1A
11
EE
0A
0E
F6
0F
18
13
10
08
F2
12
F8
02
F5
F5
EB
1C
EB
E7
1B
03
FC
0E
F9
E9
0E
EC
03
1B
1B
F8
11
07
FF
EA
F8
09
1E
E2
0D
15
1C
FB
E9
F2
15
17
08
E9
E9
FF
05
E3
0B
03
E2
E7
FD
0E
14
FC
F4
1D
FD
F5
FC
E2
F4
01
1A
0F
11
03
E8
F9
1E
E4
17
0B
F3
11
15
E4
E8
0A
1E
E3
0A
EA
09
08
E7
0B
18
16
E3
F1
F0
FD
EA
16
11
13
EE
E2
19
F3
0A
19
E4
E2
E2
EB
E5
14
06
1D
12
1C
F0
F3
15
F0
E5
0A
12
1D
1A
E9
11
15
0C
14
15
FD
E4
FD
EE
E8
E9
0C
00
02
0F
03
08
E7
15
FD
EB
13
0E
E5
ED
E2
F2
E8
0D
01
1D
0F
07
01
E5
E6
07
E2
E4
EF
17
FD
0D
FB
EC
F8
E7
10
ED
F8
1D
06
FD
03
11
F1
08
17
04
FD
EA
F1
1B
03
F4
FB
05
02
0C
F1
09
FD
1B
EB
EB
FE
01
0C
FA
19
FE
E9
E9
1D
EA
1B
F2
E7
F4
07
FC
11
07
FA
08
1D
FB
EB
FA
15
EF
1B
05
06
F5
1A
E4
F4
FB
FF
FE
EB
EF
E7
04
F7
04
05
0C
03
09
05
09
07
F5
F1
12
F6
03
EE
FC
02
08
02
F8
1C
01
13
0E
04
18
E9
1A
15
00
0E
01
F2
12
F1
F5
01
15
F9
00
E4
E9
E5
E6
16
15
14
E5
E6
F3
04
F6
FF
EC
0E
F5
E6
0F
19
E2
FC
14
0D
16
FB
F8
0D
EB
F0
06
0A
E9
01
F8
00
1C
E6
1E
FD
11
FB
F4
11
0B
EA
0D
0F
F9
1A
09
F6
E2
0B
EE
10
02
FE
EB
0D
EC
FB
15
1A
1E
1C
03
EE
15
12
1E
09
EA
00
FD
15
F9
F6
E6
14
10
E4
FC
FF
FE
1A
EB
F4
ED
F0
19
1B
E4
08
F0
ED
F3
ED
FF
1E
05
0E
00
E2
E7
F2
F0
15
15
16
08
03
09
FA
0A
12
10
07
E5
0E
F8
0F
02
17
F6
1A
15
F6
FF
02
10
0C
15
F8
00
FC
19
F4
05
E9
15
F9
F6
05
00
15
02
01
E8
E3
FA
1E
19
08
08
F9
EC
E2
F6
F5
ED
F1
E3
07
1A
0C
FD
FB
F4
EA
06
04
E2
FB
F2
EC
0C
02
08
0D
1D
12
07
17
FF
1E
10
09
19
01
0D
F3
1C
08
11
FE
16
E6
E8
00
0E
13
FC
09
03
1C
09
FB
1D
E8
1E
EB
F3
14
0E
1D
0F
08
F7
E2
E9
F4
E4
00
11
1C
FF
17
1E
16
FE
F5
1D
F0
FB
E6
12
09
E7
EF
03
02
12
F2
1A
FD
14
F0
E4
E5
F8
1C
E4
F8
E8
1A
0B
10
0D
0A
11
E2
16
0F
0F
F9
12
F9
E4
19
F0
E8
07
F0
16
FD
E2
1C
01
F2
0B
02
E3
10
FA
0C
18
07
0A
F1
F0
FB
16
01
F7
11
16
19
F4
0D
06
FD
FA
E8
F2
03
18
16
ED
0B
E7
0B
F6
FD
0D
FB
13
02
1E
08
F4
11
FA
02
EA
E9
05
ED
1E
16
0C
0E
06
E5
F9
00
19
EF
00
F6
EA
E8
F8
E7
E6
F7
EE
03
E3
F4
FD
1C
08
17
F6
FD
FB
18
1C
1C
0F
00
02
1D
F3
F7
18
F9
F0
04
F5
18
19
F4
02
1E
0F
EF
06
07
09
E3
F4
16
F0
F4
F5
EC
EB
F7
17
E2
F3
E5
04
F1
12
05
11
08
FC
16
FF
1B
1E
05
0B
F1
13
0A
19
F2
12
FE
ED
EC
04
F5
E8
FC
09
F5
1C
11
01
1B
FC
EA
E4
1B
1C
0F
E8
F3
E4
E5
F1
04
E5
1E
FD
F2
01
12
F5
E4
E5
15
E8
08
F9
11
E5
18
0C
FD
EE
1D
F4
FF
FA
F0
FB
EB
E2
F3
E8
FB
16
EB
E2
E8
00
F2
FF
E3
F6
FB
FC
03
11
FE
15
02
F1
EF
F5
06
F0
19
FF
16
0B
F6
EF
0F
F6
F1
1A
FF
E4
00
FE
16
0D
ED
EB
06
E4
F5
EA
E3
1A
E7
E2
1A
ED
13
E3
EB
E8
0D
07
FF
F0
E7
04
F0
06
0B
15
00
E2
F3
16
02
07
FD
EB
18
11
1E
16
F3
F1
F1
1A
03
FD
1D
06
19
1E
E6
F8
0E
13
EB
F5
03
12
E8
06
F4
EF
01
FB
08
F5
14
E6
16
E3
0E
F7
F9
E3
0C
EC
0A
0E
15
0D
F4
0F
14
F5
E9
18
EB
06
F0
E9
11
EA
0A
0C
E5
EC
12
00
E9
1E
F2
E2
1A
E3
03
1E
05
05
F9
E9
04
18
E7
17
FB
02
EC
07
ED
F2
0E
E5
FD
06
EA
F3
F6
0A
1D
15
ED
E3
E5
06
EB
F0
15
17
15
F1
07
07
ED
03
02
FA
0F
0B
02
0E
10
04
F2
10
0D
1D
EB
FB
1A
01
1B
E2
E4
12
F7
01
FC
FA
1B
E7
11
18
0A
FA
EB
0B
FE
EB
F7
1C
F2
EC
0B
EE
1A
16
1D
19
F0
EE
F6
FE
17
0E
09
17
09
F9
FB
01
E7
0F
09
0E
02
11
1B
04
FD
E8
11
19
0C
16
16
12
00
E8
E2
EE
FC
0F
FD
E3
EE
1D
1E
F9
13
0D
1A
18
08
FA
08
F5
F7
07
04
05
F9
FA
E2
06
05
1B
00
FE
E6
EE
F6
F9
F8
FA
10
E9
F6
EB
F4
0B
E4
F6
E3
1C
0E
F0
EE
E8
FE
0F
05
17
F6
F2
FF
EE
1D
ED
FF
01
E5
FE
FD
F1
E9
E4
E2
FF
E7
1C
F0
09
0B
00
17
E8
F0
F1
EA
F3
F5
10
F4
17
11
19
E8
1E
07
1D
F7
1C
05
E6
FB
EA
1B
F4
EF
03
FB
E7
13
15
0F
07
FA
03
01
EC
E6
F1
FD
EB
E8
15
F8
05
01
0E
0F
F4
15
F8
14
FA
E8
10
E3
11
E4
EE
06
1B
FA
E9
F0
18
0E
E8
F9
F2
EC
15
07
EC
09
FB
E5
FD
ED
F0
17
0D
EA
15
05
17
0F
F6
02
02
0D
F1
F6
F0
F4
EB
E4
1B
E6
18
E2
11
F6
01
F3
FF
FD
02
F9
02
14
FC
F8
EA
F7
E9
ED
1C
E7
FF
14
1C
EA
EB
F8
03
1C
EE
EC
F1
17
E3
F9
E9
EB
19
E2
F5
19
07
E6
FE
1D
FA
02
02
0A
ED
15
1E
EA
13
13
0F
F8
FE
15
EB
14
1A
0B
F6
04
E5
1A
F6
E5
12
0A
07
E5
0F
08
12
14
EE
EE
1A
02
FC
F3
08
0F
E2
03
1E
F3
F3
17
E5
FA
FD
12
E9
FC
EB
12
08
00
F9
EB
1A
09
F5
FB
0E
0D
FE
F4
0A
0A
06
E6
FE
07
1B
02
F6
03
EC
E7
0B
1E
15
05
E4
1E
FD
F3
18
0F
0F
F2
1E
FD
02
0F
0A
EC
F4
F8
1B
0D
F8
0E
0F
FA
FA
18
04
EB
0D
05
01
0E
19
F6
FB
ED
09
FA
F6
0C
FA
FE
FC
F1
E9
14
E7
F5
0A
EA
09
0E
0A
F4
E3
18
F5
13
EE
EB
11
1B
16
0F
F1
19
0A
EC
E9
17
F2
10
EA
F3
F3
F3
0B
19
19
0F
EE
1C
03
03
0C
10
1C
05
07
0F
F1
F4
08
E5
F5
0D
1D
01
FA
FC
0B
03
E3
02
FA
0C
17
1C
07
F8
FD
EC
1B
15
16
F6
F5
16
03
0C
FF
FD
08
13
F6
13
F0
FA
19
1C
1A
F5
15
1B
1D
E3
0F
1E
10
F0
10
E8
FF
08
FD
0C
F0
06
09
08
F3
F4
F1
FE
05
F8
FB
F3
EF
0A
13
F3
16
04
EC
F8
E2
E4
F6
FD
12
EA
15
F0
EA
0C
11
06
E9
E9
F9
FD
1E
F3
ED
1B
EB
E3
FB
FA
07
17
1A
F3
1D
08
E6
1B
EA
05
12
F1
F2
FF
17
EF
0A
FD
E8
0D
14
05
EC
EB
FB
00
03
F0
00
F3
0B
12
09
E2
1E
E3
1E
E3
01
E8
E7
0B
0E
E9
1D
F5
F5
F4
FE
EC
FB
EE
E5
F8
0B
10
F7
F5
12
0B
14
19
14
1B
FB
FA
F5
F0
0F
0D
12
EC
FF
EF
18
F2
EA
04
17
19
E7
F5
EB
F4
02
F3
E6
01
E5
EF
E2
E7
FC
15
11
E8
E4
F6
09
0F
14
F6
EC
E3
EA
E5
16
F2
14
03
02
FD
13
E4
E7
FB
FA
03
0F
05
F1
F5
0F
EE
00
02
0F
0D
FE
F4
F8
FB
EF
08
EE
09
0F
1C
E9
10
E7
F6
EC
EB
EC
E4
14
E5
FA
0C
1E
16
EA
1E
09
EC
FD
19
F9
ED
17
1C
1D
1C
17
FD
ED
07
EF
FE
0A
1B
F3
F1
0E
E2
04
0F
03
F9
14
F8
0D
FE
E3
02
E5
1A
06
F8
FF
07
F1
F3
FB
F1
10
E8
14
F7
04
EB
F9
10
F2
EA
01
EB
F5
FD
04
09
0B
15
E6
F8
E2
E2
EE
06
18
11
09
11
EC
15
18
E7
FE
14
FF
15
1B
FE
E5
F6
EF
FE
05
FE
ED
F4
0B
E3
EF
18
E8
FB
EE
E8
FB
01
EC
E6
EA
09
16
EC
F5
F6
F8
F0
E5
02
F7
F6
F2
1A
07
FB
EE
12
18
E3
1A
0C
E8
0F
E8
E5
E9
FE
07
FA
E9
EE
15
1C
10
E8
14
0C
02
EA
1E
FC
E4
EE
FA
E5
F5
FE
1B
E7
05
19
13
1A
EC
12
1D
F5
00
02
00
F3
1D
1C
F9
13
FA
12
05
FE
E9
09
F5
EF
ED
1D
E8
12
16
E3
05
05
F7
0A
FA
FC
FC
12
08
F9
1A
12
1A
0E
F9
11
F6
F2
FD
1D
04
F9
FE
F3
0A
F7
03
F8
F5
1D
F7
E6
F9
02
E7
F4
EC
00
0E
1D
F9
16
EF
11
04
10
10
02
F1
02
14
1D
1A
ED
06
E8
0A
1E
E5
0A
1B
15
F9
E8
1A
1A
05
1D
E2
07
E4
1B
0B
19
04
E7
E3
F6
0F
EB
15
F0
00
EE
FE
FD
E2
04
11
1B
F6
17
17
1E
F8
15
04
E5
F2
0A
EB
FC
11
EB
00
EF
02
F0
1C
E6
1C
12
16
15
ED
1A
06
1C
17
05
F8
E9
E8
F9
13
00
FF
F0
04
08
1D
0E
07
19
FB
1B
F8
E9
FB
E9
E9
17
12
EF
15
E6
F3
0D
F4
0E
17
E6
E3
1B
01
00
FE
FC
0C
05
EB
08
0A
E8
F8
12
07
EA
E4
05
FE
1C
01
1A
EF
FD
EA
05
ED
00
F6
ED
E7
01
1B
EE
FA
EF
13
FB
1D
F0
E6
05
09
1E
17
17
08
F7
FC
EA
FC
F8
E4
EE
02
F8
1E
FF
1C
0A
E4
EE
0D
03
F4
01
19
F9
E4
F4
1B
10
15
19
E9
F3
E5
E2
14
1B
EB
0E
02
E6
19
17
04
0D
FA
12
FD
1E
E5
EC
1D
F3
F4
12
ED
01
F3
EE
1C
EE
E7
0B
16
E9
0D
02
14
E9
1D
07
15
F8
1B
08
E9
1A
12
F4
03
F9
03
1C
18
EF
1D
FC
0C
10
FF
FD
FD
16
F9
F3
F8
ED
F9
E8
E7
0E
E6
04
11
0E
FD
ED
1A
14
07
E7
E4
F5
EB
16
EE
F3
1D
13
EF
F9
01
0A
1B
17
1D
E4
F0
04
E4
F7
EB
1A
E5
EB
ED
EB
04
F8
19
F1
02
0A
08
12
EE
00
12
16
07
09
16
08
1B
E9
F7
E8
E7
FE
EF
FA
FC
07
1B
15
F9
F5
11
E9
02
FB
ED
07
F5
ED
09
EC
0B
EB
FC
13
EF
10
0E
19
EC
0D
1B
10
ED
14
E8
05
00
02
01
E3
00
1B
FC
F2
1E
E8
FF
01
FF
1A
FB
1D
E6
0E
06
F0
EF
0D
08
07
E5
06
1D
E3
FE
00
18
F3
FF
0D
E5
12
14
0D
09
0F
11
19
FC
FD
08
ED
16
11
08
F4
F7
FC
0A
11
0A
1A
1C
0C
F8
06
FB
08
13
F8
00
E4
0E
FF
FE
02
EF
06
0F
F7
EA
F9
EE
F8
08
E8
0F
EF
18
0E
F2
04
E8
E8
1C
12
EB
F3
EE
FA
F3
F6
02
ED
17
0E
10
EC
0D
15
EC
0F
F7
12
FF
12
EA
F9
F2
F1
F4
F9
E9
0D
03
14
0D
EB
E6
FB
FF
F0
11
05
0F
E8
13
EE
FD
FC
14
F2
F0
F6
F8
ED
EC
F0
FE
F6
F9
0D
F0
19
0F
EC
F5
ED
F2
F8
E9
E2
FC
0C
F4
16
F8
18
F0
02
10
E5
1A
F8
00
08
09
E3
16
08
1E
FE
07
FC
18
14
19
00
12
F7
FE
10
E6
0D
E2
05
FF
FE
00
00
FA
FD
04
10
03
09
15
1E
E8
0D
EF
EE
12
E6
15
11
1E
0A
17
E9
18
EB
F5
E9
FA
0F
F2
14
06
08
1B
FC
F7
1E
03
07
F4
EF
EC
EF
ED
0F
E5
08
1B
10
FA
E5
14
E2
0B
0A
ED
0F
EC
EF
13
1D
F2
1A
19
10
EA
F4
0B
1E
13
FB
F0
1C
F2
F6
1C
04
F2
E2
FC
1E
FC
0C
F1
11
11
07
11
05
F9
0F
14
15
EE
0B
E2
04
04
F8
1E
17
E4
EE
EE
18
01
0E
13
10
E7
EA
FA
F6
0F
EB
F8
F0
ED
EC
ED
04
FB
FC
FF
0F
16
02
09
0F
0C
EA
1D
EC
FB
09
FA
F0
1A
E6
F0
1E
0E
E7
10
1D
E7
FB
FE
E9
EE
EC
ED
FA
FE
F0
F3
ED
12
EE
19
02
12
08
F2
06
F2
E9
F1
F2
EA
E3
1B
01
FA
1A
EF
FA
15
08
FA
F1
E4
E7
EB
11
08
FC
11
EB
EE
F9
19
07
15
F1
15
E6
EF
01
E5
16
16
03
F4
E8
07
02
10
06
E9
E9
11
EB
1B
E8
0E
1D
FC
E5
17
ED
02
1E
0F
E4
14
EB
0F
07
F3
FB
E9
1E
F0
F4
00
0B
00
00
05
16
FA
14
12
1C
19
12
F1
11
0E
F3
0B
F1
01
12
ED
F6
12
FD
1C
E2
0E
13
19
EB
1E
F9
F7
F7
08
0A
FE
E6
1E
EF
E7
06
FB
07
17
E7
F3
01
12
06
F9
07
1D
FF
17
11
F4
F1
10
EE
F6
F0
06
F3
0A
1B
14
1B
E3
FD
EF
19
0D
F5
04
06
00
FE
E5
FD
F7
13
16
0F
E3
15
FA
FB
1B
16
E5
F7
0F
02
F1
02
16
EF
0F
0E
18
F4
EF
03
02
FA
11
12
F0
12
F0
FA
E3
F6
1C
FC
0D
E8
08
F8
0F
1A
02
E8
FF
E9
FD
E5
09
F4
EE
E3
18
15
13
E5
F7
1D
05
E9
EA
F2
1D
EC
19
0B
1A
14
F6
14
EC
F3
EE
EA
E7
ED
E9
F9
E6
E5
1E
E7
E6
E3
EA
02
14
0E
05
E7
11
E4
08
FA
17
F4
08
FC
01
1B
0D
FB
FD
0C
F7
EC
FE
E6
EC
FB
12
11
F1
FB
EB
10
F1
12
15
0C
F6
1C
0B
09
16
17
E6
17
10
EE
F4
0F
EF
FD
0C
09
19
E8
F3
1E
04
F1
F3
F6
03
F3
07
FD
07
EB
08
1A
EA
F5
0C
07
0B
04
0B
07
E6
0F
FD
E5
FA
FC
E7
1E
EF
F6
FC
14
0F
11
F0
15
14
FE
03
E4
10
1C
FE
02
00
E7
07
0E
1A
1A
00
1C
02
09
06
1E
0E
E9
E6
FB
01
0A
FF
01
1A
F6
00
04
FE
1D
1C
01
FD
05
ED
FB
EF
EA
E7
05
E2
09
FC
F8
10
02
0E
0D
E3
EF
04
1D
EB
E8
1B
1C
EC
FA
08
ED
F5
FA
09
F4
FB
F3
10
EB
F0
F1
19
1B
00
EB
10
00
15
F7
1E
13
EF
0E
F3
F7
F1
0B
F2
08
05
0F
1E
E2
1E
E8
02
F6
08
0E
16
FA
1A
F5
EE
F9
02
0A
14
EF
F4
1B
FC
F0
1E
FD
1E
1A
19
05
12
1C
F2
E4
F5
08
03
E6
04
EC
00
05
08
FB
FA
0B
0F
13
F6
FB
F6
02
E9
FC
ED
02
15
1E
FD
E5
EF
E8
10
1E
03
EC
E3
1D
F5
E8
EC
F1
0A
18
F2
0B
E5
E2
E5
1A
05
13
E3
E3
15
E8
EB
01
07
EF
FD
0B
FD
F9
E6
FD
12
08
18
E9
E2
03
EC
06
19
F6
03
0B
EB
18
EE
13
0A
EA
0E
ED
06
1C
1C
17
00
04
F4
1A
FF
11
F7
0F
EF
0E
E4
E8
F7
FF
0D
F7
E3
F5
FC
03
09
F1
07
08
11
01
13
EF
0D
E4
E8
16
FE
07
06
0C
F0
EC
E4
16
EF
05
FD
EB
FB
E7
EC
EA
14
04
1A
FC
EE
07
1A
02
E3
F4
1A
01
1C
01
E2
17
10
0D
1D
ED
19
F0
1D
ED
03
12
E6
E6
15
E5
07
1B
07
FF
FB
08
04
00
EB
0A
0F
0D
E6
0C
0E
ED
15
01
FE
0E
01
03
F5
1A
1D
E9
0E
E3
F8
1D
EC
F8
EF
0E
FE
06
1B
01
0E
E7
EF
1B
16
0A
F9
EE
15
11
F0
05
07
FF
1A
E9
F1
E7
0C
09
1E
03
EB
FD
E7
0A
0B
16
F6
F4
E6
FB
FE
10
0F
EA
F3
01
F6
E3
15
0E
01
F5
15
E4
FD
12
1C
F1
09
ED
E9
F7
17
0C
FF
F3
EA
F2
EB
ED
0B
EA
E4
03
F3
FD
EA
EE
FC
0C
FB
03
01
F2
F3
FB
E3
0B
07
F4
F8
F6
09
10
E8
FB
E2
FD
F1
F6
FD
F5
FA
10
13
E2
F9
15
02
EE
06
EA
E3
08
01
10
F7
16
FB
0F
E8
E7
11
14
1B
F5
E3
1D
06
F1
10
19
F3
10
12
00
08
F2
1A
1D
1D
0E
E4
F8
FD
1C
03
02
EA
12
F6
E7
1E
ED
E2
E6
FD
E8
15
01
F5
E2
FF
EB
1D
F3
FE
E3
E9
EE
E5
0E
1B
1E
F2
12
00
E4
E7
03
FB
E2
1A
0E
00
1E
1D
1D
F1
17
00
0E
16
EB
FD
E9
F3
FB
16
16
F9
F6
02
19
1D
EF
ED
0D
F4
EE
E3
FA
F9
04
EE
0D
0B
FE
ED
00
0B
F8
F2
00
F7
FA
F7
F4
0D
FE
FE
09
F8
E8
16
E5
04
F2
EF
E4
18
FC
F6
0F
E4
04
00
03
E9
1C
F0
0B
0F
F6
E9
F4
13
19
1B
EF
06
EB
0D
FB
0D
0B
1E
FF
F6
02
EB
E8
01
14
02
11
EC
FD
07
F7
E2
E6
1A
06
F2
F1
E4
1B
E8
10
F0
F6
F2
14
E4
F7
F3
F2
ED
19
F9
FB
F9
1D
F6
F6
F6
F5
E7
06
E3
EF
EE
F3
10
06
1E
F7
1A
E4
00
12
02
1A
F5
E4
11
E6
10
0E
15
FF
18
EC
FC
E9
10
0D
13
10
F4
E6
1A
00
E7
1A
1E
FD
10
E4
E7
F2
0A
EA
E4
0A
10
0F
12
12
06
01
16
F7
E7
0F
F2
1D
FB
15
E4
0A
FD
FE
F2
1D
F9
15
FB
E4
17
ED
F2
16
18
19
FB
10
F5
0F
00
E5
FB
FE
F1
F8
00
E5
EB
10
F7
07
04
03
FB
FF
14
1C
F1
0A
1D
E2
11
00
1D
05
15
EC
EA
1A
02
04
EC
EF
13
F4
05
F5
F2
EC
1A
1B
E9
F7
04
F9
0D
F1
E5
F6
06
ED
13
E2
E6
01
01
F3
F1
E6
0A
F9
E9
FA
1B
F1
18
F1
ED
F1
F5
E9
05
F6
0D
FF
FD
FE
EB
0D
E8
0E
1E
10
FD
F5
17
F1
FF
11
1A
1A
E7
18
E8
05
1A
09
1B
F7
F5
F5
F7
0B
FD
0E
FB
F4
ED
03
18
16
F1
FF
0D
07
E6
06
E4
E9
09
E8
F6
05
09
FD
E7
12
1B
18
0F
FA
17
FF
EA
15
F5
1B
F8
17
02
FE
F4
14
E5
FE
F8
03
F1
0A
F9
ED
EE
0C
F1
F4
08
F6
F9
F0
F7
0C
02
1E
11
E3
F9
F3
05
F2
1C
F4
01
E9
19
19
12
F7
E5
0D
FC
1E
0C
02
1E
12
FD
E3
E7
FD
04
E3
E9
0C
0F
E3
00
E6
0E
14
17
06
08
1A
07
FD
10
06
15
02
17
E4
E4
E8
03
0D
EF
EB
16
0F
09
FF
FB
E3
ED
18
F6
0C
0C
F4
EE
0C
E7
00
18
0D
10
E7
EE
F2
F3
ED
1D
EC
0D
05
07
EF
F4
06
F4
0C
E4
E6
0E
07
E4
18
E2
1C
0E
1E
1B
F5
10
EE
FE
F0
FF
17
FC
E7
F5
11
01
04
FC
F3
06
08
18
07
1E
14
E6
F9
F9
E2
ED
10
F7
EB
F3
F2
EC
E8
10
14
00
07
1A
15
E3
1C
E6
E3
FA
0F
E6
F3
F2
FA
1E
F6
EE
E9
EE
EA
04
FB
00
14
05
EB
F8
F5
14
F4
EA
0E
FC
E7
0C
EE
16
14
F8
03
04
09
E6
F5
EC
0C
E6
01
0E
1B
F3
E2
0E
E2
E6
1E
16
0D
14
E6
E7
F4
E3
18
E5
03
16
0E
F0
FE
03
10
FC
F3
12
18
FF
E3
00
18
1E
FA
EB
04
14
1B
E5
F3
FF
E7
18
E8
0A
1A
0B
10
F2
14
FB
E5
F8
F7
01
F2
FE
FC
F5
0C
F4
10
F1
16
F8
E4
EB
13
17
EE
06
05
EA
FD
0C
1C
15
E7
F0
FC
EB
04
E2
E8
E4
F4
10
EC
1E
F2
E4
F6
0F
E8
E6
15
06
F6
10
15
F7
04
E2
F4
06
EE
1E
1D
F1
FA
ED
00
E9
F9
03
07
06
EF
12
0C
0F
FE
18
F9
13
EE
F1
02
03
0F
F4
17
F6
02
1A
02
0B
19
1D
00
FB
EE
02
1A
FF
F7
E8
F9
F0
1D
02
EA
E6
15
1A
10
E9
E7
EE
0F
10
15
E7
EB
18
1A
0E
E8
E6
E5
0C
15
08
F1
10
E5
14
18
0D
17
05
FE
F5
1A
0C
ED
1C
E5
05
ED
0A
FB
FC
0A
10
F9
1E
00
EB
E2
EE
0C
02
F6
FF
15
04
E5
E4
FF
FA
15
05
10
05
F7
0A
07
0D
ED
09
F3
12
12
08
1B
02
E3
06
11
E8
E8
F2
15
02
1D
17
03
0B
F6
E7
FA
06
ED
EF
E2
0E
18
14
F9
06
1C
06
F4
F6
0E
FD
15
16
E4
0E
F8
01
F2
F8
F6
E5
11
EA
F8
ED
EB
F8
1A
1B
F9
00
1E
F0
1B
E8
EF
F6
E4
13
16
F9
15
11
12
12
04
E8
1A
07
18
1C
ED
FA
ED
E5
1C
1A
1A
17
09
01
1E
03
09
EE
0F
13
0B
00
EE
E4
08
0B
11
1B
00
14
0D
F2
15
E5
06
1B
0A
1B
E5
02
11
09
17
FE
0B
FB
17
E9
F1
E7
0C
F0
F5
15
F7
EA
E3
EF
19
03
1E
EF
F7
EB
FA
04
13
F8
11
08
F3
19
FC
EB
1C
19
E5
19
1B
14
F1
08
02
07
07
08
01
0C
02
E3
E4
1C
19
05
EC
11
EA
F9
F6
E2
13
01
F5
00
E2
FC
01
F6
14
F1
EA
02
18
F8
E4
1D
FD
EC
07
F5
1B
F3
03
03
F0
00
E8
09
10
1B
F5
F3
03
0C
1E
E3
F0
F2
F1
FE
17
E3
13
07
07
0B
E9
0F
F1
01
0B
06
F5
FA
FF
E4
0E
E8
FD
09
E6
1E
F9
E2
0A
04
09
0F
FF
14
F8
03
EB
07
F1
0C
12
16
1A
E9
EA
1A
F9
E3
F3
15
F7
E6
0E
ED
F7
E2
06
FD
16
F6
EE
EC
EE
FD
E7
FA
16
10
08
18
11
09
16
E9
13
F4
0E
19
00
E7
F8
FA
1B
1B
04
1B
FC
FB
15
0A
01
FD
0D
0F
FF
E3
E8
EA
FE
07
13
F0
11
0A
E5
F7
F4
18
1A
13
02
00
F5
11
E7
F2
EA
00
F4
EE
F8
16
04
14
19
19
F7
17
19
1C
F7
EF
05
1A
18
04
EB
FB
0D
04
F7
F6
E5
F3
0A
F0
1E
E7
05
00
14
18
03
08
0C
01
ED
FC
F0
FE
07
EE
F1
14
F9
EE
0D
0D
14
10
1E
05
F3
16
F2
F3
14
17
F6
0E
1A
12
E2
0A
EC
15
E6
1E
EC
FB
F0
13
FA
0F
E6
FD
19
1A
EE
FA
FA
04
02
E8
10
EF
F5
15
0C
FA
19
FA
04
F1
ED
FF
04
13
F9
18
07
E6
0F
05
F9
FE
F4
07
04
FD
F3
FA
00
FE
F4
05
EF
00
E9
FE
11
13
0C
0F
E6
F6
09
12
05
16
F2
EB
E7
05
0A
F3
11
0F
F7
F0
0F
0A
EC
F1
FF
01
EC
1B
F9
F9
E5
17
F0
1E
00
17
EC
EC
12
13
03
E3
1B
F9
1B
17
15
0C
0B
02
E3
F9
0E
13
04
0D
E3
FE
00
18
F4
F0
F7
EC
04
09
12
1D
E6
F1
F4
F1
14
EA
E3
16
1C
EF
F6
00
02
1E
FA
E2
FB
03
01
01
1A
13
F1
F7
0A
FB
FC
EC
F1
0F
15
11
F4
EA
EB
FA
01
18
18
E2
0D
F4
EE
03
E4
F6
03
F2
06
FE
12
ED
E5
02
F1
0D
E7
05
1E
E7
F4
15
02
EC
EF
10
16
F7
FE
11
EC
EE
11
ED
11
00
1E
E4
1B
EF
E4
0E
02
15
E8
E6
04
17
FA
12
19
17
01
0C
02
0B
04
02
FC
09
0F
1A
07
E8
05
F5
E3
E6
06
1B
00
FD
E7
0B
E5
15
13
1E
F3
EB
F4
12
EF
18
EB
E4
EF
0F
06
F7
0A
09
03
01
E8
F1
02
EA
FF
E9
12
E8
E7
08
EF
F7
F5
EF
10
0C
F0
0B
0D
02
05
1B
FD
F9
02
14
0D
E6
FE
0F
EF
1E
13
15
E6
05
02
08
15
F7
02
0B
0F
10
F6
1E
E2
00
07
E5
FD
06
07
E9
F2
F0
09
F6
04
0E
12
ED
19
EC
E3
E4
EE
17
EE
0C
FB
E4
FD
E3
FF
04
01
F3
10
06
F1
FC
E8
1A
0F
F3
0B
0B
07
E5
17
1C
1D
1D
1A
0F
E5
FE
F0
EF
14
13
01
0E
E9
EF
16
FD
03
FE
EE
14
10
0B
F7
09
1C
09
00
F2
01
F8
07
E4
ED
12
F9
FC
03
FC
10
F0
10
EE
F8
05
18
F0
05
E5
E6
10
0D
F8
08
F9
F2
FC
F5
13
FB
F5
02
10
F2
1B
FE
0A
1C
FC
EE
0F
E2
FD
1D
FB
0B
02
EF
F5
01
E8
FB
FB
14
E9
15
FB
09
03
F4
1A
EF
E4
0F
07
18
FD
E3
E3
FC
F1
1A
E9
17
EF
E9
F2
EA
FA
F6
02
02
E2
E9
EB
ED
E7
F5
03
F4
F6
FE
03
F6
EF
FA
E3
00
1B
FA
E8
0D
E9
ED
EA
17
1D
04
07
09
07
03
1E
0E
E7
F9
1D
FA
EE
16
08
04
FB
E9
F9
FC
1A
F4
EB
FC
1E
FF
F9
0A
09
F4
1D
06
E5
FA
1A
F9
04
07
0C
17
EB
01
02
EB
0B
E9
FD
F6
EB
14
F0
F1
16
17
E4
F2
0D
11
1E
03
E2
17
EB
E9
0B
06
E5
EC
05
F1
0B
FB
05
FE
F8
F6
0C
01
06
05
EE
19
04
0D
17
1A
0A
12
FE
0F
F5
0D
E7
19
F0
0A
E2
EB
1E
14
EF
E9
13
1E
EC
0A
F3
0F
FB
E9
F5
02
12
E3
1C
09
17
1A
EB
E7
11
ED
EB
FE
19
12
01
ED
F6
0B
EB
01
E2
F5
F1
0B
19
EA
12
0A
1D
19
E8
0F
06
E8
F1
1A
03
F6
F5
15
F3
EB
05
1E
ED
F1
FE
EE
09
F1
E9
F1
1A
1B
00
FA
13
ED
09
0B
0D
EF
0D
07
17
EC
07
14
F2
0F
E8
0D
06
ED
E6
0F
F0
00
E5
1C
03
1A
EB
EE
07
06
12
1A
14
EA
F4
19
03
16
04
E5
FE
14
09
EA
EE
16
1D
0F
E7
07
14
09
06
FE
F0
F3
0F
E6
E7
FA
11
0A
05
02
E8
F6
E6
10
0F
F1
F3
F5
18
FF
10
FD
0C
02
F2
17
0D
10
1B
F1
E7
05
F5
FC
F0
FA
F9
F7
0F
06
FE
E8
04
EC
F5
FB
EA
F9
F2
15
16
E2
06
09
F9
FE
12
F9
E5
F8
F1
F9
F0
EB
1E
E9
0D
0D
07
19
E2
F4
ED
05
08
18
F9
F0
1A
0B
10
FD
FD
F9
0F
EE
1D
EC
FE
F5
09
0B
1A
12
F1
EE
18
FF
E7
14
09
E3
11
07
07
16
00
FE
07
EE
EB
15
EF
00
F2
F0
06
12
FC
EA
F0
EC
17
F5
F8
E6
FD
19
FA
09
ED
EA
0E
E6
FD
F5
E2
02
1C
E6
13
02
0E
E7
17
E2
19
0A
F6
E2
07
E7
07
11
F2
F0
EF
EF
E8
F1
0A
F4
11
13
10
02
F5
1A
EE
FE
FD
0F
03
12
1A
F9
17
EC
19
EC
15
F9
1C
E9
FE
19
E4
F2
E7
F5
F9
07
F1
EB
EC
1B
1C
EF
ED
E5
1C
0D
10
F3
09
E5
0B
05
F6
0D
09
FC
ED
E3
1B
F3
F4
0B
F1
F8
0D
06
0A
E2
FD
FE
08
EB
EB
10
0B
13
F2
1E
F2
09
EB
1A
F6
12
F6
12
FD
E5
ED
0B
ED
F2
03
F1
E9
08
0C
0E
1B
E9
FC
F0
18
02
E7
0C
E4
F2
0E
00
10
04
15
04
E5
E6
11
E4
F8
E2
F4
06
EC
FE
1E
E6
E5
F2
14
FA
09
E4
0E
E6
0D
EB
16
F4
ED
F6
E2
EC
06
F4
F7
13
E9
FA
ED
FF
F6
E4
E6
15
E5
11
19
FE
F5
11
1D
E9
1C
1B
EA
E5
0D
E6
06
E5
0C
F0
E7
E6
ED
02
E6
12
06
F4
1E
0A
0A
EC
0D
04
1E
FF
0B
F6
E4
E9
16
0F
F8
0C
E2
E4
00
08
1B
10
F1
13
FF
14
EC
E3
E5
1E
E6
1B
0E
EA
16
EA
EA
05
F3
F3
ED
07
E3
F0
03
FF
0C
EF
09
10
F9
F1
03
05
E7
04
EB
04
1A
02
10
F4
1A
13
19
0F
09
02
1A
15
FB
E7
E2
F0
E5
EE
E8
1D
E7
08
F7
EC
0C
1D
12
1D
06
0B
EA
15
0F
F1
F7
07
E2
13
F3
E6
F6
14
F2
02
13
E4
10
F3
0C
ED
EA
12
13
1D
0B
FE
ED
F4
09
F7
FF
EC
FC
F0
E8
EA
01
F8
E8
01
EC
E2
EA
FD
1C
F0
F3
F0
F7
0D
F5
0A
18
1B
04
0D
1A
11
F4
EA
E9
17
03
F4
F7
F3
12
07
17
F4
FE
E9
1D
01
03
FB
F2
1B
FF
0B
E4
F2
13
E7
E8
13
F4
F2
04
ED
E4
E2
E6
EB
0C
F4
E6
E2
FF
15
F6
E5
EF
00
ED
1D
10
F7
1C
F5
EA
1B
1C
F5
06
EC
09
0C
0D
04
0C
03
14
EC
FF
FB
02
EA
F5
1C
E8
08
0A
FE
E4
E4
F2
E8
E7
EB
ED
15
08
E3
08
EA
FB
E4
E7
EA
FC
FE
F7
07
0D
0E
05
03
FF
F0
FF
E2
1C
F8
10
1C
00
16
FF
EA
E3
EA
1B
FE
F5
FD
F1
17
1E
E7
0D
F6
E4
1A
E5
EE
E3
FE
06
F5
E6
E9
1A
13
1B
02
03
11
07
FC
F3
FF
E5
ED
0E
16
E8
E7
E7
12
F4
F5
E2
1D
FC
12
0D
EA
12
03
06
EE
15
1A
FA
E7
15
18
00
05
EF
E6
1B
FF
F2
0C
E3
E6
F0
FD
F8
ED
F7
F6
02
04
17
13
F3
19
01
ED
F6
0F
14
F8
EB
ED
E8
0C
00
FD
0A
14
12
EA
05
17
11
F6
F9
18
E4
02
E9
18
E4
E3
F6
EE
00
F4
F7
04
04
1B
FF
04
0B
EC
0A
16
F5
EC
F7
F2
05
16
06
E9
F5
0C
F6
05
0C
F6
09
FA
EA
F8
FC
E2
18
02
E4
16
16
E2
EB
F8
00
0E
FB
07
E2
0A
19
02
FD
F4
1C
E4
F3
EA
16
FF
1A
0A
03
01
EE
04
0B
1C
03
1B
1B
01
FC
EA
F2
17
EA
FA
0C
F0
1D
09
E3
F1
0F
16
1A
15
E6
0E
E8
E6
0C
FF
09
15
E6
02
14
FC
01
00
19
E5
17
13
13
FB
01
F8
F1
17
00
0E
E8
12
0A
1E
EA
02
01
02
E5
FE
F4
07
F0
FC
07
E5
11
0D
E5
E5
15
F3
16
00
F6
F2
0A
E8
FA
F7
EB
F7
02
0B
E7
17
17
0C
1A
FC
14
0E
04
EC
04
18
1E
FD
F1
0F
E6
EB
04
1E
F6
FD
F5
FC
E2
06
06
F5
F2
10
ED
E4
E4
17
F8
E8
17
EB
F6
E3
0B
0C
10
F2
F6
1B
14
E4
0C
13
04
09
E2
E3
E4
EB
1E
08
11
F4
1B
EE
19
E3
E3
E6
12
F1
FD
FE
12
F7
E2
F9
F3
0E
0F
E7
12
E6
07
F9
F4
FF
F4
12
1C
13
FC
00
FD
12
03
FE
FA
F8
03
0C
FC
13
14
FC
19
EC
1A
F3
04
F3
FC
F6
0D
E6
15
19
04
03
0C
EE
0F
EF
0B
F4
0F
12
EE
07
00
F3
05
1E
E2
1C
16
02
07
F8
E9
04
13
F0
0D
0F
10
F6
F9
FB
16
18
FB
1D
04
F9
E2
07
09
1D
0D
E3
04
0F
00
FC
13
07
0B
FE
F2
01
1C
06
0D
E9
1E
F0
1D
FD
1A
18
10
19
07
15
EC
E6
03
13
10
02
01
07
16
15
E8
06
F9
12
00
1E
FC
0B
E8
1A
EB
F9
15
1D
FF
FF
E4
1D
E3
E3
FE
E2
EC
08
0D
F4
12
07
EF
0D
06
13
EB
F0
F4
F6
18
0E
03
02
18
FD
EF
EA
F6
09
FE
FB
FF
1D
1E
EB
E8
F0
15
FE
16
09
03
F3
F6
EB
01
F3
F3
E4
12
1B
00
02
1A
01
07
FC
01
01
0D
06
00
E6
19
18
ED
F3
1D
F5
13
11
16
E2
FF
04
15
EF
F4
EC
10
1E
EA
F0
F4
18
FD
F3
F5
06
F9
EA
14
FB
F1
0E
0F
EB
E6
E4
10
08
12
08
FA
05
0E
FA
19
18
12
1E
F9
E8
FF
0F
11
F9
F3
FD
13
E5
F6
F0
13
FE
E7
F1
E4
FF
1E
04
17
0F
17
F4
1C
F0
FC
0B
F3
F2
E9
E2
00
1E
EF
FC
1B
11
E2
00
EA
F1
F1
07
EE
F1
EF
F7
0A
FA
F5
01
07
E2
18
19
06
05
0C
FC
F8
F7
EB
15
F5
F3
1C
00
07
F0
F2
0E
FD
EB
14
FA
0A
F6
04
11
17
EE
0B
19
09
EA
ED
EE
E8
0F
1C
01
06
11
FB
FE
05
F4
E5
04
14
E6
EF
F2
13
00
02
09
F2
0D
E3
E8
13
0A
EC
FC
E5
0A
10
F2
F7
F0
F9
F2
F1
FC
16
10
F4
1B
EE
19
F4
02
EE
10
F5
17
E7
00
EB
18
FB
0B
17
02
E5
EF
EE
19
19
FF
18
F1
0B
F9
F0
F1
FB
F6
EE
F6
E9
1D
F9
E8
05
17
F7
15
07
0F
F4
E4
F7
1A
12
11
17
F8
F5
1A
04
F4
F2
17
E5
E5
0F
E2
EC
1E
FB
0E
FF
E7
ED
10
E7
06
F7
F8
1C
06
07
F7
F9
0B
E4
F0
06
08
E7
12
03
F0
0F
1E
FB
F3
F4
06
E4
FF
E3
E4
FC
0F
17
E7
F0
FB
05
1E
0B
02
E5
E6
EB
0A
F6
F0
0A
13
FC
17
0E
0D
16
ED
10
1C
1E
05
10
18
15
18
14
F9
0E
FB
12
13
1B
05
FE
EC
08
04
01
0B
15
EB
FC
0E
14
11
12
16
1C
07
F1
04
0D
E8
10
03
1B
EE
19
FD
04
0A
05
19
EC
0E
1D
EF
F1
FE
0E
1C
12
12
FC
09
EE
FE
ED
E3
16
13
01
E2
E7
E8
0D
EE
F1
16
17
10
F4
05
EE
16
E7
0F
01
10
FD
EB
0F
08
FE
F8
F6
FF
F1
F3
F2
E2
1A
F0
EC
EB
1E
FF
F5
FA
E7
F5
F1
12
E5
FB
12
14
01
EF
F6
EF
0A
F3
08
09
1B
F8
1C
FA
0B
0A
13
FE
12
F7
FF
00
0C
07
E6
13
10
E8
1C
0A
E7
FF
15
F3
1A
FB
EF
F7
02
0B
1A
ED
1C
02
E9
1A
F7
07
0C
E2
EF
0B
F5
E2
E3
14
EB
E8
04
E9
09
03
09
FF
11
09
FB
E2
F2
EA
E2
F2
EE
E6
F5
00
EC
F2
E3
E5
EB
FD
0A
12
08
07
1B
F1
12
1B
04
15
EA
17
04
EF
E5
0D
FC
F4
F9
1E
FC
E6
F3
EA
0B
12
15
08
10
FB
08
E8
02
04
E3
03
0E
F8
03
F3
F2
E9
F5
12
1B
08
08
07
FF
FB
07
11
FB
04
FE
F3
F3
E6
FC
0D
0B
1E
E4
10
12
FC
F3
F7
0B
16
09
01
09
E6
07
E4
1C
18
01
F8
0E
08
0D
01
F0
E6
F3
02
FB
00
F2
1B
F8
15
F9
FD
06
F2
EF
F9
13
EA
FC
0A
0D
FC
E6
E2
FE
13
E3
18
0B
E2
F6
EF
1B
03
F5
F2
04
E2
F1
EC
07
0A
FE
EA
F8
15
EE
EB
E8
13
E9
05
1E
09
FB
EE
E2
EB
1C
EA
E3
13
FB
F7
0D
01
19
FE
0D
17
FE
F3
1D
EF
E4
05
1E
E7
15
14
1A
FB
F1
01
EA
15
0A
FF
01
0D
01
15
1A
1B
07
0F
F4
E4
FA
17
EA
03
ED
FC
EA
0E
13
10
0C
F0
02
E8
F8
00
0A
E7
13
FD
17
02
03
0C
14
EB
01
E3
FE
13
16
F3
F9
03
FA
EC
F4
FA
01
1A
03
F9
0A
11
FC
FF
EF
16
16
EC
F7
F2
1A
E5
EE
F5
04
F1
02
0F
14
E8
EA
E7
19
09
02
12
05
F0
01
0C
E4
06
00
E6
F2
FD
F6
F3
09
FA
00
12
E7
F7
E6
1A
ED
14
ED
F5
07
14
EC
EF
17
F5
EE
0F
E7
16
17
16
F4
E8
FB
F6
1C
08
1B
0F
0D
E8
E6
E4
06
EE
1E
EA
1B
0A
E8
E5
FA
F6
F5
02
E9
E9
0C
1E
F2
1A
F7
F6
E7
FB
00
0A
EB
ED
FC
E6
EA
08
1C
04
EA
1E
01
0D
EE
05
E6
08
EE
19
E5
09
EA
0B
00
1D
09
F8
E7
06
FC
E5
05
EE
F0
E2
F8
EF
E6
FC
EF
EA
FE
E5
1E
FE
1E
17
1D
03
FB
0D
E6
15
F5
E2
F0
F0
E2
0A
E7
15
FD
0D
F6
EA
ED
09
0D
F2
F7
1B
15
FB
F0
F4
02
04
ED
E6
00
12
EB
FA
EB
F0
07
F3
F2
1E
EC
ED
1A
03
E4
FB
04
F1
03
09
F1
13
FD
1C
E7
F5
0D
18
EF
1D
ED
FB
F5
FB
19
0E
12
F1
1B
FC
09
0C
0A
06
FF
09
19
F9
01
EC
F7
11
09
EE
03
13
E9
E5
F9
0A
F5
14
15
02
F9
E4
14
18
FC
01
0F
0C
EA
0B
1A
0F
FF
01
F1
0A
F0
F6
F2
F6
F8
E7
0D
FC
1B
ED
0A
EC
03
FF
FD
09
14
F5
15
ED
F3
F4
1C
E9
FA
FB
12
FF
1C
0F
0C
0F
EB
FD
05
EE
E9
EA
12
0A
F3
0E
0C
13
19
17
ED
10
F9
FA
09
06
FB
1E
EC
E7
E3
13
FA
FC
09
FC
05
E5
EB
1A
FD
EC
F8
F6
F2
F3
0E
E8
F4
FE
02
17
1A
F4
02
E3
07
EB
E6
0A
EC
FF
E8
0F
10
05
14
FC
ED
EB
EF
EE
F5
EF
06
EB
07
F6
0B
01
19
FC
F3
05
0A
FC
04
FE
F4
F5
19
0B
E7
1C
0D
E5
0E
05
19
FF
01
F5
F5
07
14
18
11
07
00
F6
10
F5
F2
16
05
F7
16
1C
F5
01
FF
0C
1C
03
12
06
18
FA
F9
FB
1E
07
EB
E4
01
13
FF
04
12
01
19
08
0E
11
08
E5
FC
EA
01
EA
01
F6
E3
E9
00
E6
16
10
0D
EC
12
08
F9
E2
02
12
E4
E5
F9
01
FE
FB
F1
E5
E3
E8
0C
11
FC
E6
FB
1E
F1
FF
02
F6
FC
FE
FE
0D
05
E5
E2
FB
19
E4
E6
0B
FD
F0
EE
0A
01
08
F3
02
16
F5
FA
EB
08
E3
F1
0D
E3
1E
FA
FA
02
08
FE
17
1C
EE
0D
F4
1E
F1
F3
0D
12
E9
03
F7
07
03
1E
1A
09
0B
18
ED
0E
11
E9
17
0C
F7
FF
FF
1A
1D
13
09
E8
19
EA
EC
E6
1B
00
F0
E6
FB
0E
1E
03
07
14
19
F3
1E
01
1A
E9
E7
17
0B
EC
18
E8
0B
EE
E6
13
15
E8
E7
07
E3
0F
19
0F
F0
ED
0B
E5
02
FD
0F
EE
10
0C
F0
F7
E6
FD
F1
E8
04
04
E7
ED
E7
0B
F6
E6
ED
1D
F1
0B
FE
ED
F4
E2
0F
F6
00
EB
14
EF
04
17
0D
06
18
EC
1C
03
FB
F1
0F
1D
0C
E3
FE
0E
FA
11
0D
E6
04
EC
FF
F9
13
16
FE
02
08
09
08
11
1D
14
EA
FF
FE
01
02
0D
FB
F2
FD
16
F4
E3
1D
ED
06
12
F2
F6
F3
EB
EB
ED
FD
02
E2
15
0B
E6
15
E3
04
FE
00
1C
1A
F3
05
1C
0E
18
FC
F3
01
13
1A
0B
0D
01
F5
FB
00
13
03
12
E3
10
00
1E
FE
FF
E9
13
0C
16
E7
EE
17
E4
01
FA
1B
16
18
F3
05
0C
1D
E2
1D
F7
E9
07
11
E9
E4
18
1A
EB
19
19
1E
EF
05
1E
19
06
EE
E7
F1
E5
ED
E6
10
05
01
13
FB
FA
EE
FD
EC
05
1E
02
F4
0B
14
FE
F1
0D
ED
1E
F5
F7
0E
E2
EE
E9
F9
03
EC
F6
11
1B
E2
08
E3
01
17
12
F0
F1
11
14
F3
E2
FD
07
FD
1B
13
12
E3
16
10
FA
05
14
19
03
E4
07
0B
E5
13
EE
18
03
F5
E5
E3
0F
F9
15
F0
1A
1B
E8
09
1B
F5
E6
17
FE
E3
15
0B
E6
F1
E3
1C
E3
12
01
05
13
18
E9
E3
E9
0B
04
E7
F0
02
0E
F6
1B
1E
10
FD
17
0E
01
FD
14
03
ED
1E
E6
0C
0A
05
E5
00
18
F0
0C
16
1C
01
F5
0C
FF
08
0F
0D
F0
10
03
1A
0A
18
1D
1E
0F
06
E9
F9
FE
11
05
FC
EA
0D
FC
E4
F3
17
E9
FA
01
E7
EC
1B
06
EE
EC
FB
0E
0E
ED
0E
18
EF
E3
1C
01
11
F5
F4
EF
EF
FE
E8
15
01
19
00
F4
01
EB
14
0D
EA
05
02
EE
E9
10
F2
01
F1
09
E4
F7
03
FC
07
ED
FC
10
F6
EB
15
11
0B
12
11
0F
01
E3
06
F2
11
FE
19
06
03
1A
FE
F8
F8
17
10
EB
00
F8
09
E5
0D
0F
EF
EB
08
F1
1B
11
1C
02
1B
E2
F3
E2
0B
01
F3
F4
09
EC
01
07
F0
EF
F7
06
F1
F9
03
ED
04
EA
EA
F0
F3
E3
1C
F4
13
19
12
14
E8
F8
0F
05
E2
04
13
14
F9
F0
F4
F4
F7
F4
FD
E4
F2
F5
EB
17
0B
19
04
E8
19
FD
0B
F9
00
FF
F3
03
0E
E3
E9
15
04
1D
06
09
18
0A
F6
02
F0
F6
0B
EB
0A
05
F4
E4
0C
14
0E
FB
09
FB
F7
F5
EE
1D
0A
EC
16
EB
06
EC
F8
0A
1E
1E
18
F0
E7
19
1A
F2
E3
09
E6
E4
1B
00
E8
09
F8
02
18
F0
09
14
FB
1D
FD
FE
17
08
16
12
0D
F0
FA
16
07
F3
F5
11
EC
E8
10
F3
10
02
1E
02
16
15
EE
1E
0F
E8
E2
F2
E2
F7
1E
FF
E3
00
EF
16
E7
11
FD
E3
0B
FD
11
07
12
FE
E2
E9
FD
FA
12
FB
16
ED
F9
10
E9
F5
0F
05
11
01
16
17
1D
E9
06
E8
EF
F4
09
FC
16
F4
07
10
1D
F0
0E
E7
03
FB
1C
11
1A
15
FB
0E
E3
04
E4
0E
1C
0B
15
F0
1E
03
0B
11
09
F5
07
09
16
FF
00
00
E8
E7
E3
0A
FB
16
0C
EA
E8
F8
1A
E4
ED
E3
FB
1E
0B
00
EA
F7
01
F2
0D
1D
EE
F1
E9
0E
FE
F3
EF
E6
FF
0B
F0
E2
FE
0B
F7
F1
EB
0F
16
10
01
0E
FA
E3
F8
0C
09
1E
1E
F0
E2
F2
17
13
E8
EB
04
0A
1D
10
EE
E4
08
03
1A
05
00
F4
E7
17
14
EB
0C
F8
FC
15
15
ED
F4
14
19
E6
14
FF
06
E6
0B
0B
0A
12
1B
15
0F
1D
0B
0A
03
10
E6
00
FB
19
E6
09
ED
17
15
F0
17
00
1D
0E
E4
EE
FA
EE
EA
1D
17
FC
EF
ED
19
F6
E2
FA
FD
08
F6
1A
09
1E
F8
09
F8
0C
0F
F5
1B
16
18
EF
0D
E8
E8
1D
EB
16
FC
F4
E6
0B
0E
FE
13
F5
03
F3
05
EA
FF
03
03
FD
09
01
F3
EF
09
1B
0F
08
1A
18
00
E8
08
07
F2
15
17
F6
FF
ED
EC
F2
F8
F2
EB
FD
08
F5
02
F2
0C
09
1C
E5
16
F6
E6
0C
EC
EC
1D
EF
03
EE
E9
E2
E2
FE
FC
E4
F7
F2
04
1E
0C
1A
ED
EF
0F
F4
15
FE
EE
15
03
12
FD
E9
0B
E9
0A
FB
12
17
FA
17
E8
E8
1E
05
FD
EB
F3
0B
14
19
FA
FD
EB
E7
FC
05
E8
FA
09
13
1B
F6
F9
17
0C
F2
0B
EB
FD
F4
1E
E4
16
F3
E4
0A
0B
EA
E4
E8
FA
EA
0C
E6
12
17
0D
1B
1B
E4
F6
10
F6
0E
11
1E
F6
F7
E3
F3
F3
FD
FB
16
11
0E
E2
FE
0E
F0
FB
0E
12
16
FC
FA
F9
0A
FB
FA
EC
FF
F0
02
18
11
FF
1D
1D
FD
10
F6
17
F8
F1
EA
15
F4
13
E7
00
FC
FC
EC
E6
F7
FE
12
FE
F1
F2
07
FC
18
FC
04
E5
ED
15
F7
FB
06
E5
00
F7
EB
FB
FD
ED
03
0F
F2
1C
07
11
E6
10
F6
0D
13
F1
F1
E5
06
11
FB
EB
F5
FA
19
E9
F6
08
F0
17
19
F9
0F
10
0B
ED
E5
F7
EA
F3
08
05
EE
E3
EF
FD
11
F8
F3
03
E6
EF
E4
02
FD
05
07
FA
17
1A
E8
1A
ED
F1
02
E3
F8
ED
FF
13
1A
EE
03
FE
FB
08
1E
FA
E5
19
1A
F5
00
16
00
FF
1A
14
00
EB
FC
0B
F2
02
0A
E7
04
0E
EF
03
0D
E4
09
F1
FA
09
E2
E3
FD
1B
E2
12
E6
FF
FC
FE
E6
0F
F2
11
09
03
F4
09
1E
1A
19
EF
05
FA
1C
1B
16
EB
F5
0D
0F
F7
EA
EA
0B
FD
FF
13
E3
10
F2
1A
1C
00
F5
F0
ED
1E
ED
FD
FF
0B
15
04
10
04
FC
EB
EE
FC
E4
F5
FE
FE
13
1D
0E
E6
FA
0E
06
FD
FC
FA
05
EC
01
EE
0B
16
00
F9
1B
0A
FC
E3
E2
EF
F0
0E
00
1E
02
19
03
F7
0D
FD
F2
FE
0A
F8
0C
1D
FB
F4
FA
15
EC
1D
FB
15
11
11
19
ED
06
E8
F4
E4
0B
07
0F
EC
F6
0B
14
18
E6
FA
E2
13
E9
14
EB
E2
17
FC
FB
09
F2
0C
FC
F2
FA
E2
F4
06
EA
E9
0A
FC
EA
0F
11
E4
EE
F8
0E
E6
13
F5
E9
16
E7
E9
1B
01
FE
0B
08
07
E3
03
F3
13
00
E9
18
F3
F2
1B
11
16
0A
19
E9
06
F3
FA
F0
EE
FC
1A
08
F7
FC
02
F0
01
0C
F0
05
0D
01
F3
03
12
EF
05
0B
F5
F9
18
F8
06
EB
1A
06
10
06
F7
F6
0C
16
E9
15
14
E8
E8
0C
15
FA
09
1E
F5
EF
1E
F3
FE
FC
01
F2
0B
0C
EE
FF
E5
EF
1E
00
07
18
0D
12
0D
00
08
F3
18
EC
17
17
EA
0D
1E
04
F6
17
01
E9
F1
0B
FD
EF
12
E9
EF
FE
E4
F9
19
1B
17
F5
E5
13
F8
0F
E9
0A
05
1A
E8
FA
1E
F9
0A
EB
0E
F2
04
17
0A
FE
ED
F6
15
EF
0A
FF
F5
0D
F8
F3
02
10
16
08
0A
12
F2
F1
FF
08
09
EB
11
F8
17
0E
1D
08
02
ED
FA
16
F9
E5
F0
06
08
1E
1A
02
03
12
E4
06
FE
11
12
09
0A
0C
05
EF
F3
0F
07
F0
17
1D
08
EF
1B
F0
FC
16
01
F0
E6
F8
0A
0D
EF
EB
0C
EB
E5
FF
04
F0
EE
F0
F6
E2
E2
F8
E3
F5
05
E3
07
07
04
08
13
E6
EC
F5
0B
17
1A
05
FB
FB
E5
FE
01
EE
10
13
F4
19
E8
19
10
EF
09
F4
12
EB
F0
F4
EE
F6
06
08
03
ED
EE
1A
F1
E8
FD
E2
F6
16
F2
0C
FF
F7
0A
06
F5
EF
19
EC
1C
FE
1E
F7
04
07
F6
EF
01
0A
F1
10
08
EC
1B
E4
09
FC
09
11
0B
09
15
0C
13
FA
EE
F0
07
02
E6
EE
1D
0E
10
EE
E5
F3
16
00
11
FF
FF
06
1C
FC
06
1A
F8
15
02
17
FE
08
F5
08
F5
07
12
FC
FC
F5
0E
06
01
E3
E8
E2
15
15
E6
E4
11
02
F4
07
F0
EE
F8
18
10
ED
04
17
1C
10
E9
F0
EF
EB
EC
F5
03
FA
FB
F0
EB
1E
06
F0
13
14
1C
EB
09
1D
13
EF
18
FB
FF
04
11
E9
02
13
03
F2
E5
03
0C
03
1D
06
01
E5
04
EC
0E
EB
19
F4
FC
EA
EE
1A
F3
01
1D
08
E4
F7
F9
F2
F0
00
F8
F3
FB
F6
EF
FD
1B
00
06
1E
07
EF
FA
FF
FE
EB
E8
F7
19
0D
15
EC
FB
05
FC
FB
F7
E5
16
1A
E6
FB
01
11
1E
FB
0F
1B
14
F3
13
FB
E3
10
14
F6
FD
F8
E9
1E
E3
03
E2
0C
18
09
06
14
1D
16
F0
04
13
F3
0B
E3
17
07
0F
14
EF
FD
16
EC
14
F3
05
01
0B
15
F7
EC
FB
07
0F
0F
F6
1B
E7
E9
E3
1A
EC
06
13
10
1B
E5
FA
00
0C
07
04
F4
E8
FC
F1
03
12
03
05
E4
09
FC
E9
EF
11
19
00
1D
EC
F4
1A
EC
0A
EF
F6
FF
F7
17
1D
00
02
E5
F0
E4
16
EF
F6
15
0D
07
E4
04
04
F5
0F
1A
F1
F6
F5
14
E6
18
11
FF
05
18
10
F2
E5
0A
EA
E7
1D
FE
09
EF
E8
E5
F7
E2
FB
F5
02
05
F4
FD
E6
F4
1D
1E
FF
1B
00
E9
16
FB
07
09
F4
0E
00
F8
F4
0F
F1
E9
17
F6
09
0D
15
08
0D
15
1B
E4
0F
EC
18
E4
F1
ED
06
E2
E3
00
1D
02
FD
0A
03
F9
05
E2
F0
0B
F6
E5
E9
16
F6
E3
0E
02
FD
18
F5
04
0F
07
EE
0B
0F
E9
EC
0B
E9
17
E8
1D
0A
FD
F2
F7
0F
0F
EE
03
1E
F1
0C
EC
14
EC
F4
FE
F8
EC
09
E3
1D
E5
F6
1A
EB
E6
0F
E6
18
FD
17
F0
EA
1C
10
19
F5
FA
05
FD
F0
F8
07
E4
F6
F3
E6
E9
00
E8
F7
04
17
E8
FC
E8
FC
FF
12
FC
1B
EA
E5
E2
F7
ED
E7
F0
1D
12
E3
19
EE
FA
F5
FA
10
0D
06
08
0E
ED
FA
E8
0C
FC
08
04
F2
EA
1D
F3
E8
F4
19
F1
1E
FE
16
09
E4
01
FB
EE
03
E8
0C
14
E7
FF
09
E5
F9
F1
E4
13
FD
0F
05
17
1E
06
F7
FB
14
FC
01
ED
1E
09
F6
05
FA
EB
17
18
14
F8
F1
E5
0E
F6
18
17
E9
19
EA
FF
FE
1C
0A
17
06
14
15
16
FB
F9
1E
10
19
05
1A
0D
0F
EC
04
0E
10
1C
F5
F4
1D
1E
EC
F9
1B
EE
11
E8
EC
11
07
03
16
F4
00
07
0F
F6
08
FD
03
16
FA
0A
1B
10
1E
05
F3
1E
09
F0
F5
F1
14
E7
0F
03
E6
07
0F
0E
02
F6
EB
E2
F7
08
E4
1E
05
F3
1C
ED
1C
F3
F9
FB
1E
F1
1D
F7
F3
08
0C
F7
EA
FA
02
E4
E6
19
E4
FA
10
F6
00
E7
12
08
15
16
F7
E4
F7
EA
02
EA
1A
06
F1
1A
10
FC
EA
F6
05
10
F1
0F
F3
F1
FD
EB
FA
F7
F3
11
F6
0C
0D
0A
F2
14
F0
F2
17
F6
0C
E4
07
16
0D
05
15
F4
F8
E6
0C
0E
0F
0F
E9
0A
10
EE
FF
19
FB
0F
02
0A
08
09
11
19
F4
1A
08
06
F5
FB
09
F8
F3
13
FB
09
E3
E6
15
EA
12
18
FF
17
FC
1C
F0
FC
F9
11
E4
14
E3
F5
06
EA
FF
1E
14
E3
06
06
E6
09
01
0B
F4
F1
0E
0E
EB
EF
05
14
EE
EF
13
0C
19
11
1C
ED
F2
F0
E5
11
0A
E7
EE
ED
FA
FD
F3
1A
EE
04
FC
F9
14
1D
E2
FE
E9
FC
07
FB
F4
F5
F4
F5
F8
0B
E7
E4
01
0B
F1
EE
08
F9
0E
EA
E9
03
F9
0E
00
F7
EB
EB
10
EF
00
13
18
F2
E8
11
0B
F6
06
ED
0C
0E
F4
FE
F6
E3
E9
1C
FD
EB
E4
F7
1D
F9
1E
FF
10
11
E3
E2
1A
1A
EA
09
1A
1B
F4
13
09
1A
EA
06
E3
F7
E2
FD
13
0A
F5
FC
F8
0E
F2
E7
00
14
FF
EE
E4
1B
10
EB
E6
E9
F8
13
EB
13
E2
0F
F3
1C
FF
F2
F0
14
FA
F7
0E
02
0A
FD
E5
E2
E4
05
01
0F
18
EC
1C
1A
07
02
EC
EC
E3
09
FC
ED
EA
E5
09
0B
08
E8
E4
E8
0F
0F
F3
E5
F5
13
EA
12
FE
EA
1A
01
0A
E7
F8
08
09
E5
06
1B
11
EE
19
0B
E5
E9
1A
EE
E7
FD
02
04
0A
1E
10
E3
E7
E2
FA
F7
1A
F8
E3
17
F1
19
11
17
14
EA
08
FB
08
0F
00
F5
19
0A
18
F0
15
F5
FE
16
F7
F1
19
1C
F4
F4
EF
E3
03
F1
15
EC
08
00
07
E8
FE
08
F6
17
02
F8
E3
EC
FF
FA
17
11
EB
06
FD
E8
0A
02
E7
FE
0E
F5
F7
E8
EE
1D
07
EC
FF
ED
FD
EA
07
04
08
FD
F3
F1
EF
FC
FD
0B
E5
F3
16
19
1A
F4
EA
EE
EA
1C
17
13
0E
F6
FF
15
13
01
15
F7
FB
15
F8
0F
FD
F4
EF
07
FF
F8
0F
E2
E7
1C
0A
03
E2
06
FC
06
E4
03
05
F3
E5
1D
0D
07
10
0A
EA
FD
18
F3
1D
E5
F6
F7
07
EC
EF
0A
F3
17
17
F4
04
F6
F7
0A
F3
EB
F1
1A
F1
F8
08
E8
F2
EC
1A
1A
10
F1
07
0A
17
EB
0E
ED
04
17
E5
EB
13
E3
0B
00
F7
16
15
F5
E2
E9
E8
1D
06
0B
F0
15
0E
0F
FE
0C
03
F9
06
F5
1C
0D
0F
0D
FD
1B
EE
04
E6
F3
05
FF
1B
07
FB
FC
07
12
F2
05
05
E2
19
04
F0
08
0B
19
E4
FB
EC
05
00
FE
1D
02
FB
E6
F3
18
FD
19
02
03
FC
03
E6
E5
FF
06
03
FC
F3
0D
06
E4
FD
0D
11
F3
1A
09
FC
08
17
EF
EB
FC
E7
14
1D
06
1D
E6
08
FD
F2
F5
03
09
EC
07
1A
E2
17
07
F6
0E
07
10
E6
E5
09
F4
F0
FB
0E
EC
1D
FB
EB
E6
16
E8
FB
0A
01
F2
E8
0D
FF
E4
ED
04
EC
F9
E9
12
08
11
E5
F8
F2
07
14
EF
10
05
14
E6
1E
FC
F3
ED
1E
17
EA
FD
0E
06
ED
F7
F8
F3
1C
EE
0D
19
12
12
EB
EA
11
0F
0F
FB
01
E2
F3
02
E9
E9
E4
EE
1E
0C
1B
F1
06
18
F7
0A
0C
14
1D
07
05
16
0B
F8
08
03
EF
01
08
19
05
EC
1E
05
F3
10
F9
F8
15
16
01
F8
16
EC
0F
05
16
FB
14
E2
10
E6
09
ED
1C
10
E8
18
F1
03
E7
E8
F0
02
03
16
EC
0F
E2
F3
EC
E9
05
18
0A
16
06
E5
F7
14
E4
E7
14
E5
1C
10
0A
02
E7
FB
13
19
FD
15
11
E5
07
07
03
11
18
03
F5
1D
1C
0B
09
E8
FA
EE
01
14
EF
1E
E9
E7
1D
E8
0E
10
F6
E5
F4
E6
0B
18
1E
12
11
17
10
09
1E
F5
FB
19
F4
F4
EB
F2
06
18
EA
0B
10
18
0F
EB
FF
1C
19
07
1C
0A
E5
19
EC
F9
F0
0D
E3
09
16
12
F4
18
F8
0B
00
E6
E2
ED
1B
1C
FB
1D
E5
1D
F0
E4
10
F9
F3
10
F6
0F
ED
E7
F5
07
EF
EA
0F
00
FC
F0
E3
E5
0B
E6
F1
19
F6
0F
F6
1A
14
FE
0B
FB
1B
F7
15
07
09
F7
14
0F
13
12
EB
17
15
F0
1D
02
F5
EF
F8
E4
0C
0D
0A
03
F8
0E
17
E7
F9
1E
16
1E
ED
FE
E9
16
01
F0
E7
0E
13
17
1D
13
11
13
1E
FE
10
14
E9
0C
F6
EA
EC
E8
18
11
E8
08
0A
01
06
19
01
0A
04
FA
18
FB
12
06
0B
10
0E
04
07
01
F6
0E
17
0D
11
14
F8
E5
F6
10
13
01
11
E6
09
0B
00
0D
FF
01
06
12
F1
F4
FB
EE
F6
F7
F5
FB
00
0C
F4
15
FF
0D
E9
EC
FD
F8
00
EB
FE
0B
0E
F1
F7
02
01
12
F9
0A
17
F4
14
F6
F6
09
07
03
F0
E7
19
17
18
01
17
FE
E6
EE
F2
F8
1B
F6
07
F2
09
04
EB
FE
E8
18
0C
1B
17
EF
0D
E8
1C
11
0B
1E
15
16
E8
E3
1C
F1
FC
E4
08
14
15
05
0A
01
FD
03
1B
F1
FE
06
04
E3
F3
09
0C
0E
1E
0B
05
F6
F8
14
FE
0D
E9
E9
EF
ED
07
08
04
F3
05
E9
FE
EB
E6
EC
E8
FF
03
07
FC
EC
E3
0D
1D
F3
EE
F5
EF
EF
00
11
0D
1C
F7
00
F9
E4
F9
F1
FF
EB
0F
15
1C
E7
E9
1C
15
05
F5
01
02
15
02
E3
0C
11
F4
E9
EA
15
FD
02
1C
E5
EE
14
02
E3
0C
EA
11
12
14
FE
F2
17
04
08
EA
08
05
F3
10
EA
0D
1C
04
E8
03
02
03
F2
08
F2
04
06
09
12
17
11
12
16
F0
F3
02
FE
0C
E2
EA
0F
14
F4
F4
04
FF
EC
00
13
0E
13
09
17
F1
E4
E8
1E
09
F1
16
F4
06
F1
E7
F2
EF
03
E3
F0
04
FA
08
09
1C
14
EF
0C
08
06
12
EB
F8
13
18
E4
FE
F2
EC
E5
02
0A
02
F8
11
09
19
F7
F0
FD
00
FD
14
E4
02
FC
EE
09
12
03
E7
E6
FB
0A
F5
F4
16
E2
E6
EB
1D
00
EB
F4
1D
0C
EF
F0
E6
11
EA
F3
F7
07
06
12
F4
F9
F9
E4
0E
02
FF
1E
EC
1D
0B
EF
0B
10
F8
F7
14
EB
E2
0A
19
00
EA
02
F1
14
07
F6
08
0A
0B
F8
04
E4
FA
F9
02
1B
1C
FF
09
E8
FF
0B
0B
1C
FE
19
1D
04
E7
F8
10
05
1B
13
E5
16
F7
13
00
FD
E6
E9
06
04
03
EB
01
E5
EA
00
07
09
1D
16
F9
11
E7
16
F9
10
1D
0C
1A
E2
EC
08
02
E9
0D
E5
1E
EB
FD
14
01
0F
0C
1B
FE
1D
01
18
0E
EA
09
17
E9
15
E8
17
12
EB
0E
E9
04
1A
EE
EC
FB
F8
E4
FD
F1
E9
F2
E3
19
1E
F8
17
FE
19
EC
F3
0F
EF
14
FB
FA
FD
12
E2
0F
11
14
1E
11
02
FE
F9
14
F9
04
E7
F5
F2
FC
00
0D
FC
EB
03
E5
15
11
EF
F2
E3
F8
E4
1B
EA
0A
04
F0
13
E8
18
0F
08
17
FA
F3
EB
1A
FA
14
F6
1C
17
F4
FF
12
EF
E3
F3
06
EA
F6
1A
E6
E5
FB
E2
E3
ED
E8
13
E9
01
0D
08
09
F7
18
E6
E8
16
E6
ED
EC
E4
E9
04
0A
E7
1B
E7
0B
12
01
FF
E8
F0
15
F7
E4
0E
0B
E6
E5
E9
E5
07
EA
07
EC
1D
0E
F8
FC
E5
E5
02
E3
08
F9
EA
02
03
0F
EE
03
15
F2
14
0E
FC
17
1C
F0
1D
E2
E9
E4
F8
1B
06
07
E7
01
F9
FF
F1
EE
1C
04
FB
E6
10
FE
F9
0A
EA
02
16
FE
E2
F0
E5
00
F8
EA
0B
EC
F6
1E
E6
F1
F5
01
F0
1D
E2
1B
02
E4
E9
E8
F3
F6
09
F4
0E
F3
F2
F2
F6
15
F1
F2
1C
09
ED
16
ED
EB
FD
0C
ED
0F
EB
11
E7
FE
09
F2
07
0C
09
FA
11
0E
F5
0E
1A
13
0E
10
13
F3
0D
EE
F7
1B
F3
15
FB
EE
E7
03
FD
01
E4
F2
E2
F4
1A
EB
0C
E2
04
1A
F6
EE
04
F3
18
15
09
08
06
0E
FE
1D
F7
E2
0C
0A
1D
FA
FB
04
F9
11
FC
11
FB
EF
1E
02
0D
06
F7
1D
F8
1E
FC
E3
E4
1D
02
F9
13
07
0A
0B
EE
E7
0E
E3
0D
E9
F2
0D
07
11
07
E4
15
EF
EA
17
ED
02
FF
10
E4
E8
FB
FE
12
06
EB
1D
FE
1C
1E
E5
00
FB
00
F4
04
00
ED
F3
EA
15
0B
F9
FA
E6
F3
1A
E3
EA
15
01
E3
FF
0F
F7
F9
08
06
19
F1
F2
EB
0A
02
F7
0C
F8
ED
02
FC
FA
FD
19
EF
F2
04
E4
EA
04
01
09
E8
16
FF
EB
F5
EF
FD
FE
FC
FE
19
1C
FF
1C
13
14
EF
FC
F7
E7
E6
07
FB
14
0A
E7
15
00
04
1C
09
E3
EC
FC
E4
EC
12
EA
EC
00
E7
F1
1B
08
1C
F7
07
F0
F9
EC
14
ED
EE
FE
FC
F5
F7
F3
19
05
1A
1E
09
14
E8
1B
FF
0D
F0
E7
17
FD
EA
0A
E5
FD
0C
0D
FD
F8
15
ED
E6
EB
12
FE
E4
EC
E3
13
FE
E6
EF
07
06
13
E3
E6
E4
FA
0E
0A
EE
0A
0A
ED
0F
FB
E5
F9
10
0C
F2
10
F9
FE
E7
1E
15
ED
04
11
00
EE
1D
F2
F6
F8
18
00
0D
18
1A
16
19
1B
1E
09
EA
E8
12
F5
13
1B
09
10
F3
FC
1C
13
EE
1B
00
15
01
06
EB
F6
0E
15
E7
E6
0C
FD
15
E6
F7
E4
0D
16
EB
F5
15
E4
1C
18
EB
EA
0C
E2
00
E6
02
F7
0D
17
FF
09
06
1E
F0
F0
F9
0E
16
F2
E8
07
06
F8
ED
15
15
0F
05
F1
FA
E6
F1
FD
FC
E6
1C
F2
01
FE
FE
15
0F
16
F9
F2
FC
04
F6
FE
EB
05
0D
02
17
1E
19
E7
17
F6
FD
FB
F3
17
08
1C
1C
FB
0E
00
00
0F
0C
19
11
07
1A
E8
10
F9
FC
11
F2
17
00
F7
F6
FB
1B
E8
00
14
FE
04
F7
EA
09
1A
01
FC
E9
1B
17
19
F7
08
FC
F0
EE
F9
03
E9
0C
FD
17
F3
E5
F5
1D
F5
0C
15
F3
09
EE
F8
F4
0B
17
F1
F3
14
FE
01
0D
EA
17
F8
0A
FC
0F
07
EC
ED
17
01
F2
EA
E9
1A
1D
FA
EE
FB
EA
03
08
1E
F5
EE
EA
F9
06
E6
10
FE
12
FE
EB
E3
03
02
13
17
EB
F5
EE
E8
E2
E7
02
EB
ED
E9
0E
08
1C
E8
EE
FD
09
E9
EE
FB
E3
FA
10
02
FC
FF
1B
01
02
1A
EB
E7
FD
F5
EE
E9
17
07
0C
E9
F6
07
02
0C
0A
FB
11
F1
E6
19
E3
F3
E8
F0
FA
E9
FE
1A
EA
1A
FB
06
FC
F5
E8
06
19
01
06
09
F9
E9
00
17
F5
17
16
F0
05
0F
00
0C
19
08
15
12
13
15
EF
E3
EB
F1
0C
01
FE
E2
0B
F8
10
E8
F4
E5
F3
1A
FF
FC
F2
F2
0A
1E
0F
0E
FE
E8
0E
13
01
E7
0D
1A
EF
EB
0F
F6
0D
0C
F2
E4
03
FA
16
F7
F1
16
0E
07
1C
11
16
12
FA
E5
07
10
1E
0B
04
05
E9
E2
E4
19
12
F1
FB
FF
F1
FB
F7
0C
10
E8
FE
1E
16
12
0E
E2
1D
0E
18
19
F1
E2
0A
FD
E3
F2
1E
F8
F1
09
0A
F6
15
05
EB
F5
15
E7
E2
0A
FC
F1
FE
ED
F8
F0
05
0B
19
E6
F5
F2
05
02
17
1A
11
EE
E4
18
1B
F1
E4
0B
05
18
05
10
11
E2
EB
11
EC
EE
0F
EE
EB
E2
FE
08
0E
19
09
10
EE
F6
F4
E5
1D
F0
FD
F7
E4
19
EF
E8
F6
EA
1E
ED
F4
F2
E3
E2
01
F0
E7
F3
F2
FB
1E
F4
0C
10
E5
00
FD
00
EC
FE
E9
1B
05
E4
00
1A
0F
F2
18
ED
F1
EB
1A
0D
01
0A
F1
E6
15
1C
E4
E5
04
E4
0E
1B
F3
F3
16
F7
F0
E7
15
1A
E6
12
EB
EA
F9
FC
16
0C
EA
05
17
0A
F0
E9
FD
FE
F7
E8
E9
02
1B
06
FC
1A
0C
0D
05
10
00
07
07
0F
18
F3
0C
E3
02
18
09
F2
06
F7
FC
EF
08
EE
FD
1B
10
FB
1D
E2
1C
F7
14
1B
06
07
0F
F0
EC
F6
FF
0F
F1
04
E2
E3
1C
15
16
F6
01
0B
F1
0F
0C
FA
FC
F4
13
1E
1E
11
F7
11
F0
18
F2
FA
E7
E6
FA
03
E3
15
E8
1E
F2
F9
EB
14
0E
E6
E8
07
16
E8
EF
03
E8
F4
E2
00
0D
FB
F1
FB
01
EC
E8
ED
1E
0E
E9
F4
FB
ED
15
1B
F0
E3
F2
05
13
F6
F2
F1
E2
E2
FC
07
E2
EE
19
1E
09
01
05
F8
EE
F8
0C
0A
0B
07
E5
08
17
09
05
EF
12
FD
F2
FF
E9
1A
0C
F5
12
E5
F9
09
E3
0D
13
06
EE
0F
F6
0E
08
E7
E8
E2
E6
F4
E3
1B
19
EC
F4
0F
0A
05
1E
08
0A
00
02
F3
01
1A
F8
EA
06
11
1C
03
12
F1
FB
FB
F6
0D
17
F5
EA
14
15
1B
F1
0D
0D
12
13
1C
FF
E6
ED
18
15
E2
F8
F0
F5
08
01
FF
FC
09
0B
E4
EA
F6
FC
1E
18
09
E4
E8
FD
05
0A
EA
18
00
06
E4
14
03
EF
F5
F7
E3
1B
12
18
F7
04
FD
FF
05
FD
11
E5
ED
18
17
13
F8
FD
E3
F3
0E
F6
FF
E9
00
0E
04
03
19
F0
F4
08
FF
1D
E5
E9
F6
FD
18
00
FC
EC
FC
02
05
06
FC
EB
EB
EB
07
16
17
F4
E6
08
E4
08
F9
15
08
0F
FA
15
02
08
F7
FD
15
FA
E3
F9
F9
FB
E6
E9
F5
FB
E3
F9
F5
E4
F1
F2
EA
0F
E6
05
0A
13
03
03
10
16
EE
12
FE
E7
07
1D
EA
E2
19
06
EF
12
FA
F6
F3
06
EA
F8
F4
E5
10
E2
1C
E7
F7
E8
F8
07
E7
02
11
FD
E8
0C
ED
E3
FC
F2
E3
11
06
19
FF
FC
15
E6
F8
12
F3
17
F3
FB
18
F0
1D
E4
F2
06
06
19
1C
0B
0A
F5
13
09
E3
14
F7
FF
FF
14
F2
F9
E4
F7
E7
05
18
FE
19
1D
E5
01
02
F9
14
FA
E5
03
EE
F7
00
0E
F2
F9
E6
F9
05
07
F3
E5
05
09
E7
00
E7
FD
09
0D
0D
10
F0
15
F7
F8
12
F5
E6
0D
0A
05
EA
08
EE
03
00
11
1D
ED
E8
03
1C
EB
FF
FA
F5
0A
F4
00
15
F9
E3
17
F2
11
10
02
E7
1B
0B
FB
16
12
10
EC
08
F3
E6
F6
E8
E8
0E
00
FA
ED
11
08
05
ED
E9
E9
E3
1D
F8
0A
1D
1B
F5
FF
FE
E4
10
05
F8
04
0E
E2
09
16
0E
07
E7
0F
0F
00
05
07
E9
F1
12
1D
F2
FA
19
EB
F1
E5
F0
08
F7
1D
18
18
0E
0C
01
1E
E7
0E
EA
F6
F1
06
12
E6
06
EF
E6
FB
05
EE
F9
1C
F7
1E
14
F8
05
0D
FE
FA
F6
EA
E3
F6
12
F0
EC
F6
06
EF
EF
E8
F6
EF
14
19
F8
E7
E7
F5
FE
02
F4
F7
F3
01
0C
E4
FF
09
0B
04
02
0B
F9
04
F5
FC
E9
F7
EA
EF
FB
00
1B
E3
18
F6
0E
0B
1D
E8
1C
E5
17
09
FF
FA
E7
12
0E
1B
0E
1C
18
FB
0C
F2
12
07
FC
08
F2
07
FE
F5
1D
E5
10
EE
EF
EB
E8
E9
14
1A
05
E2
16
06
01
1B
FA
F7
11
02
0D
0C
15
F5
E6
FF
09
13
F2
0F
14
13
13
1E
0A
F8
FC
0F
F0
06
04
0A
FB
0F
E6
0F
13
18
1A
F7
E4
09
E7
F3
0C
06
07
0F
EC
12
05
FB
FE
01
03
F6
EF
EC
F6
F1
01
19
E8
F4
E4
1D
0C
F0
FB
0E
1C
05
F2
0C
0B
09
E4
0D
E3
19
17
04
09
E6
17
F2
F1
0D
1B
00
00
03
F3
06
1C
F9
11
11
15
0E
1A
0D
1D
0D
15
18
1D
06
0D
1C
F9
E9
17
08
FC
0D
E3
FF
F2
F3
1D
03
EA
F8
F0
19
F3
F7
F6
EC
11
05
FC
FA
0A
E7
1A
04
EF
02
15
EC
01
06
13
04
0E
11
18
F8
0C
F1
15
1C
F3
04
14
E3
0D
14
17
EE
10
11
E2
0D
08
1D
E4
1C
04
F2
F9
10
1E
F5
1E
08
ED
06
12
E5
E6
E2
04
E5
1A
E9
E6
F1
10
19
F1
01
11
12
EB
15
16
0E
02
F9
18
16
01
0F
FA
0F
E7
18
01
06
ED
02
E2
18
0F
FD
14
13
E9
E5
F1
E2
04
02
02
E6
1A
1D
06
E2
FA
0D
0F
F0
14
1D
01
F9
02
E3
01
E3
E4
03
01
1E
00
1D
13
F6
1A
FF
06
E8
EE
01
F2
06
E6
F1
0A
07
1E
18
13
E2
06
EF
F2
EE
FD
E9
02
EC
00
08
EC
E8
13
0F
F1
18
EF
1A
E8
0A
E3
EE
FA
E7
FD
F0
E8
1C
1D
1C
EB
F9
F5
F5
FB
01
FF
F3
1D
1D
F6
EF
02
F8
1E
FC
E4
E9
E6
F9
F5
16
18
EA
1B
05
F4
FA
FC
EC
16
E2
E6
F2
EA
E5
F9
F8
E9
13
17
0D
01
1B
F7
FC
E2
0D
E7
0A
11
EF
07
F4
FA
02
F1
12
FA
FE
13
EF
FD
1E
FA
E9
F3
1C
10
13
F1
15
F9
12
17
EE
1B
08
0E
10
EC
0F
EE
F2
E9
ED
1D
F6
F9
FF
0D
05
02
15
00
10
19
0B
E4
F2
07
FF
F3
F6
E6
F0
11
E2
15
F6
13
F1
14
04
15
E5
12
F2
F7
E4
1C
09
1D
04
EB
F6
FC
EA
1A
1C
04
05
0C
0B
E5
02
11
13
06
18
05
F9
FD
0C
18
F0
F3
09
10
FA
09
E2
F3
1C
05
16
EF
F3
1D
1E
17
F5
12
FD
15
15
FC
F4
1D
FD
FC
0A
1B
E9
1E
FB
E3
F4
FE
0B
04
EA
FF
F0
F2
0D
13
EB
06
FB
F6
0D
F1
10
FA
E7
12
15
04
0E
EB
F6
F7
10
F7
0E
F4
06
EE
04
E6
0E
E3
1E
15
05
19
13
EA
0F
F9
16
16
1C
FD
ED
E9
EC
1E
05
F7
FD
EC
04
FB
12
E3
1A
E5
FB
F6
0D
0A
EE
FF
02
FE
E3
EC
00
F1
03
EB
0E
ED
09
15
F7
EA
E2
F7
E9
17
1D
1D
1A
05
F5
FD
F1
15
FC
F9
0C
F8
F7
EF
E6
E4
FA
1E
F1
09
F5
F4
EB
04
0A
F7
02
FF
F2
0C
03
E6
00
F9
12
F4
1C
07
E9
FA
17
F1
0C
11
0C
E7
F8
F7
F6
17
E2
02
1D
17
06
1E
FA
07
03
E4
E4
18
EC
F7
08
05
01
1D
12
1B
0A
1D
06
03
13
16
E6
19
0C
18
0D
1A
F2
ED
ED
F1
EF
FC
EE
EB
01
12
EA
01
0A
0D
E8
0E
E3
F0
F5
16
ED
11
1E
1C
F4
E7
EF
10
EE
09
F8
10
06
05
11
1C
F8
02
08
14
FF
F8
15
1C
04
E8
F3
FE
0C
0A
14
E3
FE
0C
1E
EA
17
E2
EE
15
11
1D
06
07
02
01
01
F3
16
F7
07
0A
02
07
E4
F5
FD
FA
19
18
0D
F7
E5
10
17
FF
14
1A
03
EE
E3
10
04
EB
E5
1D
F5
F5
08
F8
19
0B
F7
F2
16
06
1A
F7
E3
18
F0
15
0D
F0
10
E6
F9
F7
0A
02
07
FF
0F
EB
0D
E5
E7
0E
EB
10
EA
EA
1A
EC
19
F7
12
1B
E9
F6
05
16
ED
ED
F8
EE
F2
E9
14
12
EA
02
09
08
1E
09
0B
E4
E6
07
19
FA
09
EE
FD
0F
0A
E8
17
1A
FF
F6
02
12
FD
E3
E6
13
12
11
E9
EC
FA
F0
F9
04
F3
E9
FA
0E
07
F5
F4
05
EC
14
17
E3
1D
E3
FD
0A
F5
EE
E4
0E
E4
FF
F9
1D
1A
13
0E
03
F7
EC
1D
F9
FC
EA
F2
08
FC
05
EE
E7
18
FC
F8
F3
0A
04
F9
1A
19
EE
09
1D
FF
E3
EA
0A
19
E9
03
00
F3
08
17
F0
E5
F7
F5
0E
02
E3
F6
0E
FF
04
F2
F5
E9
E6
E4
08
EB
05
1C
0C
05
E9
FF
18
F9
14
0D
F2
EA
E3
F2
F6
0A
04
FF
0E
10
0D
18
F7
14
FB
ED
EA
E7
1C
EC
14
11
FC
19
19
1A
00
F4
E4
15
17
02
E6
14
F4
03
0A
EA
E5
E6
1C
1C
FC
FB
FA
F7
03
F7
07
F9
08
1B
EE
E5
02
E9
F0
12
FB
03
11
E9
FF
E4
00
EF
19
F1
EE
E2
EA
EF
EF
0F
18
16
1C
18
FD
F9
09
F5
06
1E
EE
10
1B
02
F7
F1
EC
F5
0F
01
EF
03
13
E2
E3
1C
0F
05
19
05
01
EE
13
10
F4
0E
0E
E7
EB
06
08
0A
F8
14
FD
EE
E9
17
0D
FE
EE
E7
EB
E8
02
EE
E9
F3
0C
00
EB
0F
FF
ED
0C
1E
02
EB
F4
06
1E
1A
1A
14
05
09
0E
0D
08
EA
17
E2
FB
FC
1E
E7
FF
F7
E7
EF
FB
19
F9
17
0E
13
16
0D
0E
EB
0D
E4
0E
09
10
09
F8
F8
06
FE
F6
FF
02
F0
08
F5
F2
FB
E8
06
0E
1C
F3
02
00
0E
08
13
15
E8
F7
09
03
FF
EC
04
0F
E4
06
19
04
1C
F7
E2
0B
EE
E2
EC
1A
11
F2
06
F6
EC
1E
13
F8
F7
13
FE
F8
F9
FD
01
E4
FF
FC
F2
F7
FB
F8
19
02
00
F2
19
E3
03
EC
10
F9
F3
E5
12
FA
F2
15
E3
FE
EB
E9
E3
ED
1B
FD
1E
F2
10
E7
E8
E3
18
0A
0F
1A
F6
0E
00
03
0A
FE
E3
E6
00
04
0E
04
ED
F8
FD
1E
02
08
0E
F8
1C
0B
15
0F
07
E3
05
E9
06
0C
03
F4
E5
0A
0C
FF
0D
11
01
E4
17
FE
0B
19
F8
07
E3
17
E5
03
F7
E4
FE
1B
EC
F3
ED
E9
F0
04
11
0C
11
0D
F9
18
EC
0C
E8
10
E7
EF
F9
0C
E4
F1
F6
0E
1C
07
00
F6
14
E8
E9
EE
F2
FE
1B
09
F9
EE
09
F1
1D
FF
03
19
F4
FE
02
F2
E5
F3
E8
0B
E2
F5
17
04
0A
0A
F4
08
EF
08
0B
17
1A
E3
F4
03
F5
07
16
F1
18
17
19
E6
F3
E9
E9
E5
FC
E7
F4
1D
17
1B
E4
0A
08
EA
19
FA
1D
E8
09
E9
1B
07
E6
EF
F7
E2
E2
1A
1D
02
19
09
E3
0D
E3
13
F8
EA
F1
0B
15
04
EB
18
12
FB
03
1C
F9
E3
EA
06
1E
0F
07
F5
FC
E4
F8
08
19
1A
14
E3
13
EF
07
1B
18
0A
F4
01
0C
01
FA
FA
06
E4
1E
E8
1E
E4
01
FB
05
FC
18
E3
1E
0C
11
EA
E5
FA
F5
11
18
FC
10
E5
0F
E8
0A
F9
FB
F2
FA
17
13
F6
F3
01
0B
ED
0E
1B
15
03
F5
F5
0F
FD
E8
0B
EA
1E
FB
F6
E5
EC
1B
02
19
1C
E4
F9
15
00
01
04
0C
1B
18
08
05
F8
E9
0D
E2
0C
00
11
1B
03
04
FF
F8
E7
E3
0E
19
E5
F5
07
0C
0E
0C
E7
F1
FE
E5
F6
F9
1D
F5
1D
0C
0C
14
15
EF
FB
02
1D
E4
FF
EF
EE
10
EE
12
1E
11
EC
EA
FC
03
11
FB
EC
1E
19
09
0C
1B
FE
EA
06
FD
12
11
FE
F8
FB
08
08
01
02
1E
F1
EC
12
1B
07
FA
F7
FE
E5
02
F2
F2
04
1C
EE
19
01
1D
F9
1E
0A
0A
04
FD
02
15
12
E3
0C
14
0F
00
F6
0B
0A
F8
FA
F8
E4
E3
E7
FB
01
FA
1C
EF
F9
F1
F4
05
F4
F5
0A
14
EE
E8
F0
05
1C
EB
E4
02
1E
03
1A
09
E3
FC
10
01
ED
ED
0A
FE
05
F8
F6
0A
E2
FC
F8
11
0E
FB
F2
F0
EE
F2
10
E4
E3
02
EF
14
0F
10
FD
FC
FB
ED
04
16
F1
E5
04
FA
12
16
1B
F9
19
E9
F8
F2
1A
06
F8
EB
11
09
16
FC
EB
F6
07
F0
E6
14
02
FA
03
0F
E2
FC
F1
E7
E4
FC
03
00
11
FD
05
13
0A
19
EF
11
0C
05
E2
03
16
09
E2
F3
04
13
FD
16
12
F2
ED
19
05
15
1A
FB
E4
19
05
E9
02
E3
F3
F7
FD
04
15
F7
0E
1B
0F
F1
0B
F3
FF
08
F3
E2
15
0E
E9
F9
F1
1D
1B
0C
FC
E5
F1
E7
12
E7
0B
1C
F4
0B
17
FC
FD
EE
FC
17
0A
EE
02
0D
E6
10
EE
F3
FB
00
19
EF
F1
F9
16
1C
FD
0C
19
15
0B
02
1E
F0
F8
0D
E3
00
16
EC
12
FB
16
08
EB
0E
E5
F0
18
17
E4
F9
E7
F2
1D
ED
09
13
17
F7
0C
FF
E8
EF
0F
0B
01
11
0C
F6
F3
1B
1D
E3
12
EA
16
05
0B
0C
06
F1
13
03
03
F5
E2
03
F7
0A
F8
1D
0B
FD
0D
09
07
05
1A
F5
FC
F1
04
1E
07
EE
1A
12
FC
EA
FA
13
05
ED
EB
1C
FD
0B
F7
E7
FB
0C
F6
06
FC
F6
F1
F1
F1
0D
F6
0F
F4
F5
1A
17
FA
F2
0D
E6
FD
06
0B
E8
E2
F2
E9
00
1A
F3
FD
EF
E4
0C
F1
03
0B
15
ED
05
19
FF
E4
F1
12
12
F5
EE
F3
F0
0F
15
E4
0F
0F
07
17
E4
0C
E9
18
00
E7
0F
0F
FE
F4
E3
19
ED
15
05
0B
0C
16
E4
1E
E4
1E
F1
15
E7
FE
03
1C
E9
E4
09
E5
11
E4
1D
02
1B
E9
F2
FD
E3
E8
F6
0E
0D
E7
E5
0A
F7
12
F4
F8
EF
F2
0D
FE
0A
E6
02
FD
19
FB
E8
0C
EB
19
F9
11
0A
FE
05
ED
E6
10
1C
16
F4
F7
F7
0C
08
12
1B
F9
0A
00
1C
F7
ED
F9
07
1C
14
E3
01
EB
F8
1B
1E
EB
EA
0C
FB
FC
17
1A
18
11
1D
0D
17
02
E5
13
1A
F5
FC
04
09
0B
FA
16
13
1B
05
E6
15
E6
ED
F3
ED
0E
FC
EF
E2
EF
0C
12
F4
E6
03
11
E6
12
EC
F1
07
E5
F4
EA
EF
11
EF
E4
EF
E7
07
1D
EC
0E
F8
E6
0B
EE
01
00
06
EA
F1
0E
1A
E2
FB
17
F3
FD
19
1D
09
0C
07
F3
18
E4
E5
06
15
13
0B
F8
F7
FB
F1
FB
E8
F5
1B
0D
EA
F3
F1
F3
0C
18
0D
FF
EB
EA
13
0B
01
05
15
13
E7
FA
E4
F9
08
EE
EB
FF
02
0D
E2
F1
11
0B
18
13
15
01
1C
FB
19
F9
FD
0B
FA
EA
18
FD
1A
FA
1D
06
10
10
EE
13
1B
0A
1B
15
0A
FF
16
ED
04
13
1B
F2
E7
F6
16
01
E5
E9
F6
F6
EA
00
FF
EE
F0
0A
1C
1E
04
E4
18
1B
F2
FA
E3
12
11
E3
0C
FB
03
EF
13
FA
15
EB
05
F4
1C
03
0D
E7
0B
E8
F8
EF
E2
05
F0
01
10
EC
0D
F4
F6
05
08
09
ED
05
F2
F2
1B
E8
FB
FC
F0
11
FF
0D
F9
18
0E
F6
1C
16
06
E3
06
0C
F8
EA
04
12
F5
FD
E2
0C
16
11
FC
E4
00
1B
E7
EF
15
04
EC
E3
FB
06
15
17
FD
FB
1A
11
EE
0B
0D
F0
1D
F4
03
00
0C
19
F9
F9
0F
1C
19
0F
0C
10
1B
E2
05
E4
05
FA
F4
18
0D
04
17
E7
09
EB
F0
ED
03
08
10
FC
1B
F8
EB
E4
E9
FD
FB
16
E9
F2
1D
E3
FB
EE
02
1D
EF
F8
FD
12
1E
E7
FF
0F
E2
13
F0
01
1D
08
1E
06
EE
0C
07
F4
E6
09
05
11
E9
02
13
18
1B
EE
EC
05
FE
F0
E8
EA
F6
0F
E5
E8
F2
17
1E
FC
E4
E2
16
FD
E6
14
02
F7
FD
EF
1A
12
EE
0E
EC
FD
0F
E4
0E
EF
0C
00
E3
10
F1
1C
15
ED
06
F8
06
03
F4
09
F1
19
1B
EC
0E
1A
E9
0F
1B
EF
05
12
F6
F0
FA
F6
0E
F8
F8
1B
05
1A
0D
17
ED
1B
1B
E4
F7
FB
FB
11
0C
EE
07
1D
FC
1A
09
1A
19
E3
12
ED
14
13
F1
E6
FB
F4
03
E7
E4
FC
10
F5
F5
EC
F3
F4
F1
F6
F3
0B
F6
10
06
09
05
1A
F1
1D
EE
EA
14
18
E7
06
01
EF
01
0B
05
01
18
EF
08
F5
1D
F1
17
08
EF
10
F0
F2
F7
0B
F9
04
03
ED
F0
F4
EF
1A
F9
FA
0A
12
0B
03
1D
18
EE
EB
F9
14
1C
0C
0C
F0
06
ED
02
ED
E6
1D
18
0B
08
F0
04
0F
02
F3
F9
15
F1
1C
10
18
01
EF
E4
02
FA
E8
1A
1D
F8
0A
FB
00
08
FB
12
ED
0A
1D
15
E4
E8
08
1A
15
19
EB
01
0E
08
11
EE
FD
FD
1B
EE
F5
E3
EB
1D
15
F1
0C
06
19
F4
1E
F8
0D
FA
0A
F6
15
08
F3
1C
0D
FC
EA
1D
10
0A
14
07
F0
F0
E6
E5
0E
15
EB
05
E9
FB
12
13
1B
F4
1B
11
F6
F6
E8
1A
EE
F2
FB
EA
13
0C
EB
EB
E3
1B
FC
09
EB
F0
03
EE
07
1A
F4
07
19
18
E2
E8
1E
1A
F5
01
04
0A
0F
F8
18
E5
E3
1C
EC
1E
F3
F8
E3
1B
F7
EC
FF
EB
12
E6
00
F9
E4
E5
01
FA
E9
EA
13
0E
07
14
E6
0B
0F
EE
02
10
06
F1
0A
10
E2
04
00
F8
E4
E7
0F
14
FB
1B
1A
0A
05
1C
07
1A
1D
ED
0A
0E
14
F7
16
FF
F9
EB
F5
1D
0D
0E
18
F2
0A
F8
15
FB
16
0F
11
1A
12
F5
01
FE
E5
06
FC
F9
E8
00
05
E8
08
EC
EA
FA
F9
19
E6
F7
0E
F1
1D
0F
1B
1B
E8
FE
0F
E2
FD
0B
12
FB
16
0B
E4
F2
1B
E2
E8
F7
1E
0C
EB
F9
1B
EF
05
FE
10
0F
14
E9
FD
0C
FB
0A
08
F8
E8
1D
14
18
F4
F5
F5
E3
EC
F4
1E
EE
00
03
F7
1A
E7
17
0F
F4
10
FC
1D
E4
E3
03
1A
E5
11
1B
FF
16
10
EF
16
0C
E2
04
09
12
11
FF
F4
ED
E7
09
1C
E6
